<unk>	0
<s>	0
</s>	0
▁t	-0
▁a	-1
he	-2
in	-3
▁the	-4
er	-5
on	-6
▁s	-7
00	-8
re	-9
▁o	-10
▁c	-11
▁w	-12
an	-13
at	-14
ed	-15
en	-16
▁b	-17
▁f	-18
or	-19
is	-20
▁p	-21
it	-22
▁in	-23
▁of	-24
ar	-25
es	-26
al	-27
▁m	-28
▁an	-29
▁d	-30
▁and	-31
as	-32
ic	-33
ing	-34
ro	-35
▁00	-36
▁h	-37
ion	-38
▁to	-39
▁l	-40
''	-41
ou	-42
il	-43
▁n	-44
el	-45
ent	-46
▁re	-47
▁g	-48
▁0000	-49
st	-50
le	-51
om	-52
am	-53
▁e	-54
▁th	-55
ol	-56
un	-57
ct	-58
▁*	-59
ad	-60
▁(	-61
et	-62
▁st	-63
ur	-64
iv	-65
ch	-66
us	-67
▁on	-68
▁for	-69
▁was	-70
ly	-71
id	-72
ation	-73
im	-74
ir	-75
▁as	-76
▁is	-77
ig	-78
ce	-79
▁he	-80
ut	-81
ot	-82
▁be	-83
ra	-84
ers	-85
▁''	-86
ow	-87
▁v	-88
ith	-89
▁al	-90
em	-91
ter	-92
ay	-93
▁with	-94
ul	-95
▁j	-96
▁con	-97
▁by	-98
and	-99
▁wh	-100
▁r	-101
ist	-102
th	-103
▁it	-104
ver	-105
▁k	-106
rom	-107
ge	-108
▁ch	-109
os	-110
▁at	-111
her	-112
▁de	-113
um	-114
▁un	-115
▁com	-116
▁that	-117
▁0	-118
▁pro	-119
ac	-120
est	-121
▁se	-122
op	-123
▁or	-124
▁"	-125
ri	-126
▁from	-127
od	-128
av	-129
ain	-130
ity	-131
res	-132
if	-133
oun	-134
up	-135
oc	-136
▁ne	-137
ill	-138
ies	-139
qu	-140
se	-141
art	-142
▁his	-143
ate	-144
ab	-145
ian	-146
pe	-147
ud	-148
ich	-149
0000	-150
▁are	-151
▁y	-152
ber	-153
ort	-154
all	-155
▁ex	-156
ard	-157
igh	-158
▁0000,	-159
ld	-160
ere	-161
ore	-162
ak	-163
ag	-164
ess	-165
ant	-166
ap	-167
▁ro	-168
▁le	-169
▁were	-170
ub	-171
ated	-172
▁sh	-173
ia	-174
ect	-175
ip	-176
ive	-177
▁pl	-178
ial	-179
▁en	-180
▁ar	-181
gh	-182
ary	-183
ment	-184
ov	-185
ie	-186
ine	-187
ast	-188
▁which	-189
ell	-190
der	-191
▁us	-192
ame	-193
ong	-194
ost	-195
ure	-196
ical	-197
our	-198
ish	-199
cl	-200
ire	-201
▁wor	-202
ust	-203
uc	-204
ther	-205
▁comp	-206
▁cl	-207
og	-208
ight	-209
▁af	-210
),	-211
▁this	-212
▁not	-213
so	-214
mer	-215
000	-216
▁0000.	-217
ran	-218
▁had	-219
▁ad	-220
▁000	-221
ome	-222
▁whe	-223
▁ap	-224
the	-225
▁(0000	-226
▁sp	-227
ions	-228
▁new	-229
pt	-230
ous	-231
end	-232
▁man	-233
ear	-234
age	-235
▁mar	-236
ave	-237
ord	-238
pl	-239
per	-240
▁also	-241
ry	-242
.0	-243
are	-244
iz	-245
rit	-246
ass	-247
▁cont	-248
▁part	-249
▁ac	-250
ack	-251
▁fir	-252
▁int	-253
▁ser	-254
ign	-255
▁ab	-256
▁all	-257
▁has	-258
man	-259
▁ra	-260
▁sc	-261
ue	-262
▁first	-263
ide	-264
▁its	-265
ount	-266
ok	-267
▁res	-268
▁one	-269
wn	-270
ice	-271
▁per	-272
▁but	-273
▁comm	-274
▁their	-275
ater	-276
▁can	-277
▁tw	-278
port	-279
ult	-280
ib	-281
▁el	-282
▁col	-283
own	-284
ally	-285
'',	-286
▁–	-287
ond	-288
ition	-289
ations	-290
).	-291
land	-292
▁year	-293
▁after	-294
▁ind	-295
ime	-296
ff	-297
act	-298
▁other	-299
ence	-300
ens	-301
▁who	-302
ric	-303
und	-304
ile	-305
▁have	-306
ren	-307
ang	-308
ree	-309
ould	-310
▁rec	-311
▁te	-312
hed	-313
▁im	-314
uct	-315
▁bec	-316
over	-317
clud	-318
▁su	-319
ach	-320
▁ag	-321
ory	-322
▁they	-323
ates	-324
ph	-325
▁inter	-326
out	-327
old	-328
▁dis	-329
ugh	-330
▁pr	-331
▁her	-332
▁two	-333
▁pres	-334
,000	-335
ke	-336
fer	-337
▁bo	-338
▁includ	-339
for	-340
▁cent	-341
▁fe	-342
ks	-343
one	-344
ational	-345
uring	-346
ite	-347
▁there	-348
▁me	-349
▁des	-350
ely	-351
ade	-352
ace	-353
te	-354
▁sch	-355
ound	-356
▁been	-357
▁pre	-358
we	-359
amp	-360
ne	-361
▁up	-362
ents	-363
ited	-364
▁act	-365
ubl	-366
ts	-367
▁out	-368
aw	-369
▁jo	-370
.0%	-371
ood	-372
vel	-373
▁ev	-374
▁sy	-375
▁she	-376
▁over	-377
▁co	-378
▁play	-379
able	-380
ose	-381
ces	-382
▁i	-383
▁par	-384
ild	-385
▁gro	-386
ough	-387
▁when	-388
▁bl	-389
▁pol	-390
▁off	-391
ican	-392
▁qu	-393
ug	-394
ool	-395
ors	-396
▁under	-397
▁fl	-398
▁ph	-399
▁car	-400
▁tra	-401
▁spe	-402
▁gen	-403
▁more	-404
ased	-405
▁count	-406
les	-407
orn	-408
ied	-409
▁reg	-410
▁pe	-411
▁we	-412
ase	-413
iss	-414
cess	-415
▁00,	-416
ind	-417
ted	-418
▁during	-419
▁into	-420
▁some	-421
▁am	-422
▁sup	-423
▁sec	-424
▁eng	-425
ath	-426
▁war	-427
ance	-428
▁nor	-429
ivers	-430
▁most	-431
▁amer	-432
▁ed	-433
▁may	-434
▁ear	-435
▁time	-436
ons	-437
▁att	-438
ember	-439
urn	-440
▁bet	-441
▁mus	-442
▁cons	-443
▁kn	-444
ve	-445
▁ass	-446
▁tr	-447
▁-	-448
▁pop	-449
ress	-450
▁ma	-451
ward	-452
ake	-453
io	-454
▁sou	-455
ings	-456
ton	-457
▁loc	-458
als	-459
▁bro	-460
▁inc	-461
ouse	-462
ft	-463
▁no	-464
way	-465
ms	-466
▁city	-467
▁school	-468
▁years	-469
▁br	-470
hip	-471
▁bu	-472
▁serv	-473
gan	-474
▁gre	-475
▁char	-476
▁op	-477
red	-478
ail	-479
▁used	-480
oll	-481
▁em	-482
▁prod	-483
▁publ	-484
ious	-485
▁so	-486
ans	-487
▁only	-488
▁min	-489
ck	-490
▁sub	-491
▁him	-492
▁work	-493
▁would	-494
ular	-495
▁air	-496
▁fil	-497
▁world	-498
▁such	-499
aus	-500
▁rel	-501
▁will	-502
▁gr	-503
ep	-504
rans	-505
▁how	-506
''.	-507
oth	-508
▁thro	-509
▁(0000)	-510
rib	-511
▁po	-512
ident	-513
▁stud	-514
ween	-515
▁acc	-516
▁fin	-517
▁mon	-518
▁form	-519
▁med	-520
olog	-521
▁high	-522
ick	-523
amil	-524
▁between	-525
cial	-526
ict	-527
▁house	-528
▁american	-529
pro	-530
gr	-531
▁univers	-532
▁many	-533
▁dist	-534
▁than	-535
ics	-536
▁trans	-537
ince	-538
ative	-539
▁lar	-540
▁through	-541
▁z	-542
ix	-543
ished	-544
tern	-545
▁do	-546
▁rem	-547
ten	-548
ating	-549
che	-550
▁rep	-551
ins	-552
▁num	-553
▁ter	-554
hn	-555
form	-556
▁gu	-557
▁gener	-558
ral	-559
ron	-560
▁prov	-561
ale	-562
ys	-563
int	-564
▁elect	-565
▁li	-566
ual	-567
▁where	-568
▁inst	-569
▁ret	-570
▁**	-571
overn	-572
▁mod	-573
ced	-574
▁00.0%	-575
iel	-576
▁later	-577
ities	-578
▁these	-579
ork	-580
att	-581
▁dr	-582
▁town	-583
▁sm	-584
ury	-585
▁govern	-586
▁states	-587
ific	-588
▁about	-589
▁united	-590
▁again	-591
▁mov	-592
ollow	-593
▁made	-594
▁def	-595
ement	-596
iver	-597
▁cap	-598
ier	-599
ision	-600
ject	-601
air	-602
▁met	-603
▁three	-604
▁while	-605
.00	-606
ction	-607
iet	-608
▁call	-609
▁u	-610
▁state	-611
–0000	-612
ower	-613
▁cre	-614
▁follow	-615
▁them	-616
▁art	-617
br	-618
stem	-619
▁ent	-620
▁found	-621
▁inv	-622
▁end	-623
▁0000)	-624
fore	-625
▁hist	-626
ann	-627
▁record	-628
ople	-629
pos	-630
▁north	-631
▁str	-632
son	-633
▁then	-634
▁national	-635
".	-636
",	-637
▁set	-638
ines	-639
▁well	-640
ah	-641
ames	-642
▁known	-643
ern	-644
az	-645
ever	-646
▁sur	-647
▁colle	-648
▁system	-649
ert	-650
▁famil	-651
ev	-652
▁bel	-653
▁second	-654
uary	-655
ife	-656
▁group	-657
▁south	-658
▁people	-659
▁university	-660
."	-661
velop	-662
ery	-663
ulation	-664
ob	-665
▁age	-666
▁film	-667
▁oper	-668
its	-669
iam	-670
▁pos	-671
▁add	-672
ss	-673
▁main	-674
▁became	-675
ism	-676
round	-677
led	-678
▁being	-679
▁however	-680
emb	-681
igin	-682
ather	-683
▁john	-684
ution	-685
▁sing	-686
▁fran	-687
▁including	-688
▁rele	-689
▁both	-690
▁alb	-691
▁develop	-692
ise	-693
▁day	-694
▁dep	-695
uction	-696
▁sim	-697
▁show	-698
▁lead	-699
▁dire	-700
oy	-701
▁est	-702
cc	-703
cy	-704
ature	-705
ived	-706
ley	-707
▁ob	-708
fl	-709
ield	-710
ures	-711
▁sa	-712
ger	-713
▁aut	-714
con	-715
▁four	-716
▁dif	-717
ved	-718
▁soc	-719
▁sever	-720
▁origin	-721
ty	-722
▁const	-723
▁appe	-724
ute	-725
ually	-726
other	-727
▁dec	-728
ason	-729
▁arm	-730
▁var	-731
▁bar	-732
▁ger	-733
▁nov	-734
▁writ	-735
sh	-736
▁series	-737
▁compan	-738
▁brit	-739
▁cor	-740
iving	-741
▁before	-742
ists	-743
ock	-744
ik	-745
▁old	-746
▁#	-747
ause	-748
▁rev	-749
iew	-750
▁own	-751
▁area	-752
▁any	-753
▁team	-754
▁number	-755
min	-756
enn	-757
▁ge	-758
▁sl	-759
▁king	-760
▁sign	-761
elf	-762
▁use	-763
til	-764
rol	-765
▁long	-766
▁la	-767
ient	-768
cept	-769
ank	-770
▁name	-771
▁music	-772
▁ext	-773
▁since	-774
ized	-775
▁mil	-776
inn	-777
▁$	-778
▁county	-779
▁*''	-780
▁government	-781
▁commun	-782
▁intern	-783
▁called	-784
▁direct	-785
▁maj	-786
ract	-787
uro	-788
▁population	-789
▁exp	-790
▁cro	-791
▁album	-792
▁until	-793
ales	-794
urch	-795
▁cr	-796
▁red	-797
uch	-798
▁public	-799
uss	-800
▁pers	-801
ired	-802
▁early	-803
▁av	-804
▁design	-805
▁har	-806
▁back	-807
▁0,	-808
▁several	-809
ars	-810
▁ann	-811
▁offic	-812
▁land	-813
imes	-814
▁line	-815
▁german	-816
ina	-817
ful	-818
▁go	-819
▁sw	-820
ered	-821
amed	-822
▁mat	-823
ined	-824
▁west	-825
ible	-826
▁ty	-827
▁major	-828
▁against	-829
▁jun	-830
lish	-831
ared	-832
ained	-833
▁book	-834
▁cur	-835
▁comple	-836
▁port	-837
ural	-838
ull	-839
get	-840
ically	-841
▁contin	-842
to	-843
▁open	-844
▁(0000–0000	-845
▁child	-846
▁eff	-847
ives	-848
▁val	-849
ional	-850
▁suc	-851
gram	-852
▁cour	-853
ility	-854
▁dem	-855
▁song	-856
ium	-857
ange	-858
ting	-859
arch	-860
uced	-861
▁ever	-862
▁family	-863
ket	-864
▁ke	-865
ple	-866
▁same	-867
ister	-868
▁law	-869
ues	-870
oot	-871
▁if	-872
▁mill	-873
▁support	-874
▁class	-875
▁gl	-876
ball	-877
▁'	-878
▁each	-879
▁band	-880
▁0,000	-881
▁cal	-882
▁vers	-883
▁program	-884
▁run	-885
▁differ	-886
els	-887
ried	-888
▁near	-889
▁game	-890
▁bus	-891
▁award	-892
▁.	-893
▁che	-894
▁polit	-895
▁div	-896
▁ir	-897
▁company	-898
▁leg	-899
ird	-900
eter	-901
bo	-902
raph	-903
rist	-904
▁hel	-905
▁organ	-906
ash	-907
▁small	-908
xt	-909
erv	-910
▁build	-911
-00	-912
co	-913
ital	-914
▁general	-915
▁aust	-916
aking	-917
▁island	-918
pect	-919
▁british	-920
▁river	-921
ark	-922
▁former	-923
be	-924
▁york	-925
▁pass	-926
por	-927
▁century	-928
▁euro	-929
▁pat	-930
▁occ	-931
by	-932
▁because	-933
▁stre	-934
ology	-935
▁following	-936
▁mid	-937
▁disc	-938
gest	-939
▁adv	-940
▁:	-941
▁jan	-942
▁spec	-943
▁tel	-944
de	-945
ica	-946
ants	-947
ission	-948
▁charact	-949
▁camp	-950
▁great	-951
ble	-952
▁0.00	-953
▁ins	-954
ided	-955
ages	-956
▁househ	-957
ged	-958
though	-959
▁head	-960
▁ii	-961
▁ju	-962
▁result	-963
▁rad	-964
▁del	-965
ains	-966
▁park	-967
com	-968
▁tre	-969
ai	-970
▁now	-971
▁power	-972
ued	-973
bert	-974
▁lit	-975
me	-976
▁those	-977
ove	-978
ised	-979
▁fre	-980
▁partic	-981
▁president	-982
au	-983
▁party	-984
▁along	-985
ling	-986
hen	-987
yn	-988
ped	-989
ilt	-990
▁did	-991
▁rom	-992
▁return	-993
▁down	-994
▁ep	-995
▁order	-996
▁mag	-997
▁&	-998
▁rece	-999
▁start	-1000
▁home	-1001
▁could	-1002
▁0.0%	-1003
▁desc	-1004
–00	-1005
ator	-1006
tle	-1007
rict	-1008
▁season	-1009
▁hum	-1010
chn	-1011
ene	-1012
day	-1013
▁east	-1014
ians	-1015
▁europe	-1016
▁ste	-1017
inc	-1018
▁life	-1019
▁church	-1020
▁es	-1021
▁just	-1022
▁success	-1023
▁right	-1024
▁released	-1025
▁present	-1026
ink	-1027
▁although	-1028
▁often	-1029
ane	-1030
yl	-1031
▁bas	-1032
eng	-1033
▁bre	-1034
rent	-1035
ugust	-1036
▁stand	-1037
▁memb	-1038
▁station	-1039
▁coun	-1040
▁tit	-1041
▁international	-1042
▁began	-1043
▁batt	-1044
▁conc	-1045
▁around	-1046
ris	-1047
▁rail	-1048
ode	-1049
▁prot	-1050
▁canad	-1051
ps	-1052
ices	-1053
ril	-1054
▁prev	-1055
▁christ	-1056
ended	-1057
▁ref	-1058
▁common	-1059
ats	-1060
▁large	-1061
ham	-1062
oci	-1063
hor	-1064
▁like	-1065
▁je	-1066
ets	-1067
▁prof	-1068
ize	-1069
▁prom	-1070
▁another	-1071
▁water	-1072
▁oct	-1073
▁consid	-1074
▁lo	-1075
▁sk	-1076
▁march	-1077
ret	-1078
▁app	-1079
ience	-1080
ober	-1081
ptember	-1082
▁trad	-1083
▁sol	-1084
▁place	-1085
▁(0	-1086
▁non	-1087
ony	-1088
angu	-1089
▁local	-1090
▁rest	-1091
▁best	-1092
ior	-1093
que	-1094
▁due	-1095
▁appro	-1096
atic	-1097
▁members	-1098
▁though	-1099
▁last	-1100
▁way	-1101
ott	-1102
▁phil	-1103
▁requ	-1104
▁$00	-1105
ax	-1106
rench	-1107
▁x	-1108
▁august	-1109
▁english	-1110
▁service	-1111
▁fem	-1112
▁vol	-1113
▁cond	-1114
▁history	-1115
▁even	-1116
ek	-1117
resent	-1118
sc	-1119
▁far	-1120
▁associ	-1121
gy	-1122
ague	-1123
rop	-1124
▁equ	-1125
ments	-1126
aving	-1127
na	-1128
▁techn	-1129
ival	-1130
▁wom	-1131
ner	-1132
ently	-1133
ring	-1134
▁er	-1135
omet	-1136
▁road	-1137
▁june	-1138
ille	-1139
▁vis	-1140
▁named	-1141
▁estab	-1142
▁within	-1143
▁vill	-1144
▁september	-1145
▁black	-1146
aced	-1147
▁allow	-1148
▁death	-1149
▁household	-1150
▁incre	-1151
▁histor	-1152
▁college	-1153
▁white	-1154
aim	-1155
cem	-1156
▁short	-1157
hes	-1158
▁based	-1159
omin	-1160
apan	-1161
▁left	-1162
▁make	-1163
▁fore	-1164
▁accord	-1165
▁mer	-1166
▁(00	-1167
▁control	-1168
▁won	-1169
▁october	-1170
iod	-1171
▁different	-1172
▁july	-1173
▁person	-1174
▁post	-1175
▁still	-1176
▁arch	-1177
ides	-1178
▁children	-1179
bs	-1180
cember	-1181
par	-1182
▁top	-1183
▁dra	-1184
ll	-1185
idge	-1186
ately	-1187
▁january	-1188
ively	-1189
▁living	-1190
▁list	-1191
▁pri	-1192
iety	-1193
▁hand	-1194
▁langu	-1195
aster	-1196
▁report	-1197
▁french	-1198
wh	-1199
▁squ	-1200
▁april	-1201
ondon	-1202
▁william	-1203
▁every	-1204
▁lab	-1205
▁press	-1206
▁club	-1207
▁among	-1208
▁geor	-1209
ified	-1210
▁very	-1211
▁ang	-1212
▁include	-1213
▁pa	-1214
▁built	-1215
▁much	-1216
▁you	-1217
ford	-1218
ily	-1219
▁(''	-1220
▁addition	-1221
iven	-1222
ograph	-1223
▁army	-1224
ality	-1225
gen	-1226
▁foot	-1227
▁mo	-1228
ien	-1229
let	-1230
▁fact	-1231
▁six	-1232
-0	-1233
▁care	-1234
ster	-1235
▁austral	-1236
▁champ	-1237
▁my	-1238
▁refer	-1239
ention	-1240
ese	-1241
med	-1242
itions	-1243
▁ant	-1244
▁net	-1245
▁lat	-1246
▁conf	-1247
▁located	-1248
▁event	-1249
▁november	-1250
▁december	-1251
▁japan	-1252
-0000	-1253
▁period	-1254
▁tri	-1255
▁character	-1256
▁tem	-1257
▁crit	-1258
▁played	-1259
iness	-1260
▁conv	-1261
▁son	-1262
▁engine	-1263
▁district	-1264
▁original	-1265
▁london	-1266
ler	-1267
▁according	-1268
ards	-1269
▁league	-1270
ness	-1271
▁milit	-1272
▁took	-1273
af	-1274
▁single	-1275
ney	-1276
▁manag	-1277
rod	-1278
▁sen	-1279
ization	-1280
▁mount	-1281
sp	-1282
▁represent	-1283
ship	-1284
▁effect	-1285
▁men	-1286
▁five	-1287
mon	-1288
cil	-1289
▁repl	-1290
▁what	-1291
▁stat	-1292
ino	-1293
li	-1294
ody	-1295
ially	-1296
uck	-1297
read	-1298
eder	-1299
▁poss	-1300
▁nort	-1301
▁author	-1302
estern	-1303
▁$00,000	-1304
▁member	-1305
▁said	-1306
hing	-1307
▁iss	-1308
▁exper	-1309
▁import	-1310
ief	-1311
▁educ	-1312
▁field	-1313
▁cult	-1314
ze	-1315
▁expl	-1316
▁fun	-1317
▁turn	-1318
▁country	-1319
akes	-1320
conom	-1321
▁ship	-1322
▁gra	-1323
▁00,000	-1324
bur	-1325
▁youn	-1326
augh	-1327
▁times	-1328
bruary	-1329
▁beg	-1330
▁special	-1331
▁held	-1332
ored	-1333
▁center	-1334
ata	-1335
▁late	-1336
▁current	-1337
ample	-1338
▁hol	-1339
▁afric	-1340
ries	-1341
ald	-1342
▁dav	-1343
▁roy	-1344
ilar	-1345
▁led	-1346
▁*0000	-1347
▁sum	-1348
▁resp	-1349
ning	-1350
▁hy	-1351
▁popular	-1352
▁lim	-1353
▁rock	-1354
ma	-1355
▁using	-1356
▁published	-1357
▁project	-1358
▁nav	-1359
▁aver	-1360
▁included	-1361
alth	-1362
▁command	-1363
▁bra	-1364
tal	-1365
▁vict	-1366
▁million	-1367
▁conn	-1368
▁third	-1369
ves	-1370
▁los	-1371
▁inf	-1372
mar	-1373
▁(0000–0000)	-1374
▁process	-1375
▁hal	-1376
▁mor	-1377
gress	-1378
▁econom	-1379
ec	-1380
work	-1381
▁street	-1382
▁vi	-1383
ured	-1384
'')	-1385
▁hen	-1386
▁development	-1387
▁aff	-1388
ining	-1389
▁eas	-1390
▁february	-1391
ung	-1392
▁court	-1393
▁chang	-1394
▁kill	-1395
▁profess	-1396
▁attack	-1397
▁star	-1398
▁bor	-1399
▁telev	-1400
▁central	-1401
▁broad	-1402
anc	-1403
▁similar	-1404
▁point	-1405
▁infl	-1406
▁fr	-1407
▁win	-1408
▁fur	-1409
ument	-1410
▁rese	-1411
ected	-1412
▁constr	-1413
▁test	-1414
lo	-1415
raft	-1416
ivid	-1417
▁light	-1418
▁fac	-1419
▁version	-1420
▁social	-1421
▁sold	-1422
▁cast	-1423
▁det	-1424
▁cle	-1425
▁business	-1426
▁san	-1427
▁military	-1428
ches	-1429
▁mot	-1430
urs	-1431
▁describ	-1432
▁ren	-1433
cent	-1434
▁prim	-1435
ection	-1436
▁perform	-1437
ration	-1438
▁building	-1439
born	-1440
ius	-1441
▁indust	-1442
line	-1443
▁force	-1444
▁depart	-1445
uk	-1446
▁russ	-1447
side	-1448
▁instit	-1449
epend	-1450
▁income	-1451
▁level	-1452
▁hig	-1453
ases	-1454
▁television	-1455
▁side	-1456
ama	-1457
alk	-1458
▁example	-1459
▁modern	-1460
▁dev	-1461
pg	-1462
▁individ	-1463
▁received	-1464
▁political	-1465
empt	-1466
▁council	-1467
oph	-1468
ae	-1469
▁0.00%	-1470
▁init	-1471
▁few	-1472
ison	-1473
▁(0000),	-1474
▁player	-1475
mit	-1476
▁sal	-1477
▁average	-1478
▁vot	-1479
▁miss	-1480
ven	-1481
▁appear	-1482
riend	-1483
inning	-1484
▁various	-1485
▁capt	-1486
▁tro	-1487
▁bur	-1488
bor	-1489
▁final	-1490
▁role	-1491
▁become	-1492
posed	-1493
uted	-1494
▁community	-1495
▁hall	-1496
▁given	-1497
▁claim	-1498
ones	-1499
.,	-1500
▁imp	-1501
▁games	-1502
▁pal	-1503
▁cir	-1504
ges	-1505
▁month	-1506
▁civ	-1507
▁father	-1508
▁sit	-1509
ett	-1510
▁rich	-1511
▁good	-1512
▁england	-1513
▁born	-1514
▁view	-1515
▁00%	-1516
▁comb	-1517
ories	-1518
aren	-1519
▁gold	-1520
▁battle	-1521
ertain	-1522
▁royal	-1523
▁union	-1524
gether	-1525
▁together	-1526
▁introd	-1527
self	-1528
▁word	-1529
▁vir	-1530
▁epis	-1531
▁mass	-1532
dom	-1533
▁western	-1534
▁typ	-1535
ements	-1536
▁tradition	-1537
▁cross	-1538
cle	-1539
:00	-1540
lished	-1541
▁without	-1542
▁served	-1543
yle	-1544
ele	-1545
▁human	-1546
▁real	-1547
ots	-1548
▁inform	-1549
ering	-1550
▁cover	-1551
▁came	-1552
ploy	-1553
▁radio	-1554
▁feature	-1555
lin	-1556
▁republ	-1557
▁clos	-1558
▁champions	-1559
▁market	-1560
▁women	-1561
▁grand	-1562
▁independ	-1563
▁village	-1564
craft	-1565
▁need	-1566
ox	-1567
ront	-1568
▁ital	-1569
jpg	-1570
▁invol	-1571
▁production	-1572
hern	-1573
▁less	-1574
ming	-1575
▁having	-1576
▁super	-1577
osp	-1578
▁compet	-1579
▁free	-1580
▁dest	-1581
go	-1582
▁file	-1583
▁football	-1584
ray	-1585
iding	-1586
sk	-1587
▁region	-1588
▁nat	-1589
▁cat	-1590
olution	-1591
▁beh	-1592
ript	-1593
▁low	-1594
ara	-1595
ays	-1596
▁deb	-1597
▁language	-1598
▁mark	-1599
ex	-1600
▁base	-1601
uce	-1602
▁bill	-1603
▁perfor	-1604
amer	-1605
▁further	-1606
ched	-1607
▁influ	-1608
▁established	-1609
▁story	-1610
▁ve	-1611
row	-1612
▁don	-1613
▁take	-1614
ape	-1615
vers	-1616
cast	-1617
▁considered	-1618
▁0000),	-1619
less	-1620
▁mem	-1621
xim	-1622
umb	-1623
▁civil	-1624
▁roman	-1625
▁hon	-1626
uel	-1627
▁feat	-1628
aint	-1629
adem	-1630
▁compos	-1631
▁next	-1632
▁ber	-1633
▁read	-1634
▁hill	-1635
aining	-1636
▁mult	-1637
▁research	-1638
▁somet	-1639
▁previous	-1640
▁tour	-1641
▁office	-1642
▁division	-1643
▁announ	-1644
▁created	-1645
▁activ	-1646
▁cens	-1647
▁appl	-1648
app	-1649
▁married	-1650
ops	-1651
▁particular	-1652
▁never	-1653
▁bi	-1654
▁minister	-1655
▁di	-1656
▁ill	-1657
▁attempt	-1658
▁space	-1659
▁james	-1660
▁died	-1661
aken	-1662
ither	-1663
▁fire	-1664
▁cou	-1665
ana	-1666
▁arg	-1667
▁uk	-1668
▁0.0	-1669
▁official	-1670
▁full	-1671
▁que	-1672
▁title	-1673
▁students	-1674
urb	-1675
▁works	-1676
▁median	-1677
▁george	-1678
str	-1679
ville	-1680
▁du	-1681
of	-1682
▁dou	-1683
▁pract	-1684
▁hous	-1685
▁important	-1686
rote	-1687
▁mich	-1688
ably	-1689
thern	-1690
hod	-1691
▁produced	-1692
▁households	-1693
▁sent	-1694
▁ident	-1695
▁sym	-1696
▁northern	-1697
inted	-1698
▁friend	-1699
▁den	-1700
▁product	-1701
▁cy	-1702
wards	-1703
ency	-1704
most	-1705
▁feder	-1706
▁der	-1707
▁caus	-1708
rest	-1709
orts	-1710
▁phys	-1711
▁academ	-1712
▁fall	-1713
▁young	-1714
▁society	-1715
▁commit	-1716
field	-1717
▁ten	-1718
dle	-1719
▁brother	-1720
▁america	-1721
sequ	-1722
eum	-1723
▁green	-1724
off	-1725
pr	-1726
itar	-1727
▁host	-1728
▁moved	-1729
▁site	-1730
▁coll	-1731
▁mal	-1732
▁sel	-1733
▁canada	-1734
rew	-1735
▁case	-1736
▁god	-1737
▁0000–0000	-1738
▁total	-1739
▁census	-1740
▁plan	-1741
▁days	-1742
amb	-1743
▁forces	-1744
▁sound	-1745
▁,	-1746
▁lou	-1747
ogn	-1748
▁priv	-1749
▁should	-1750
wor	-1751
▁live	-1752
ways	-1753
▁mun	-1754
▁thom	-1755
▁sug	-1756
▁heav	-1757
reek	-1758
my	-1759
▁term	-1760
▁france	-1761
▁ide	-1762
▁southern	-1763
▁night	-1764
▁older	-1765
▁wind	-1766
▁european	-1767
▁interest	-1768
▁decl	-1769
▁areas	-1770
▁sil	-1771
ached	-1772
▁wood	-1773
▁went	-1774
▁mc	-1775
▁museum	-1776
▁usually	-1777
▁avail	-1778
▁education	-1779
▁admin	-1780
aff	-1781
ological	-1782
▁size	-1783
lex	-1784
▁position	-1785
▁written	-1786
▁wrote	-1787
▁performan	-1788
gre	-1789
eth	-1790
▁must	-1791
▁proper	-1792
ross	-1793
wood	-1794
ael	-1795
▁cop	-1796
▁others	-1797
▁sat	-1798
ule	-1799
▁lake	-1800
ctor	-1801
▁dam	-1802
▁body	-1803
▁anim	-1804
▁exist	-1805
▁mater	-1806
▁grad	-1807
utes	-1808
▁lib	-1809
▁services	-1810
▁race	-1811
▁continued	-1812
▁david	-1813
ha	-1814
▁developed	-1815
iforn	-1816
▁championship	-1817
▁jud	-1818
ending	-1819
▁belie	-1820
den	-1821
iment	-1822
▁indian	-1823
▁once	-1824
bl	-1825
▁cost	-1826
▁does	-1827
play	-1828
▁mart	-1829
▁struct	-1830
ints	-1831
▁coast	-1832
▁—	-1833
▁hold	-1834
used	-1835
omb	-1836
nd	-1837
▁paul	-1838
▁see	-1839
▁front	-1840
▁grow	-1841
▁00-	-1842
ifornia	-1843
ta	-1844
▁model	-1845
▁vide	-1846
▁invest	-1847
▁lost	-1848
ead	-1849
▁(0000).	-1850
▁career	-1851
▁earl	-1852
▁defe	-1853
▁constit	-1854
ination	-1855
pan	-1856
ences	-1857
olic	-1858
▁hor	-1859
▁himself	-1860
▁relig	-1861
▁0000–00	-1862
▁fail	-1863
▁separ	-1864
band	-1865
▁sour	-1866
▁offer	-1867
▁half	-1868
▁relations	-1869
–0	-1870
aper	-1871
▁fort	-1872
▁produc	-1873
gin	-1874
▁species	-1875
▁science	-1876
▁aircraft	-1877
▁kingdom	-1878
▁treat	-1879
▁rul	-1880
uf	-1881
▁little	-1882
▁mean	-1883
▁hit	-1884
ying	-1885
idence	-1886
▁appeared	-1887
▁available	-1888
ico	-1889
▁board	-1890
▁ground	-1891
▁jour	-1892
aut	-1893
▁california	-1894
▁mur	-1895
ples	-1896
▁commission	-1897
▁strong	-1898
iation	-1899
▁records	-1900
▁fund	-1901
anish	-1902
sy	-1903
▁secret	-1904
▁largest	-1905
▁election	-1906
▁instr	-1907
▁upon	-1908
▁families	-1909
▁information	-1910
new	-1911
▁sam	-1912
ping	-1913
▁proble	-1914
▁00.	-1915
▁ver	-1916
▁hard	-1917
ances	-1918
▁pur	-1919
itor	-1920
cher	-1921
▁bank	-1922
▁week	-1923
▁formed	-1924
ka	-1925
▁association	-1926
▁jack	-1927
uit	-1928
icle	-1929
▁square	-1930
▁find	-1931
▁making	-1932
la	-1933
▁comput	-1934
▁method	-1935
▁announced	-1936
kn	-1937
▁jew	-1938
▁emp	-1939
istic	-1940
▁tur	-1941
▁circ	-1942
west	-1943
▁mac	-1944
▁returned	-1945
jo	-1946
rap	-1947
▁seen	-1948
ense	-1949
▁express	-1950
▁network	-1951
▁ball	-1952
nal	-1953
erson	-1954
▁female	-1955
▁sun	-1956
▁pot	-1957
▁suff	-1958
ucted	-1959
cer	-1960
▁department	-1961
▁director	-1962
ago	-1963
▁voc	-1964
▁route	-1965
▁sea	-1966
ication	-1967
ows	-1968
▁robert	-1969
▁aud	-1970
▁desp	-1971
▁centre	-1972
▁charles	-1973
▁cup	-1974
▁administ	-1975
ament	-1976
ators	-1977
▁originally	-1978
▁material	-1979
burg	-1980
▁appo	-1981
▁started	-1982
icip	-1983
▁pet	-1984
▁wife	-1985
vir	-1986
ocr	-1987
ids	-1988
▁railway	-1989
▁systems	-1990
hem	-1991
▁promot	-1992
cially	-1993
▁thus	-1994
▁throughout	-1995
▁liter	-1996
▁parl	-1997
▁exec	-1998
arn	-1999
ware	-2000
▁health	-2001
ours	-2002
▁commer	-2003
▁middle	-2004
▁australia	-2005
▁cell	-2006
iction	-2007
cis	-2008
▁standard	-2009
roy	-2010
▁fight	-2011
▁laun	-2012
itive	-2013
▁mic	-2014
ential	-2015
aign	-2016
▁opened	-2017
,"	-2018
▁bay	-2019
▁tor	-2020
▁arr	-2021
..	-2022
ificant	-2023
▁founded	-2024
here	-2025
▁wall	-2026
▁00.0	-2027
▁meet	-2028
▁mother	-2029
▁anc	-2030
▁employ	-2031
ability	-2032
▁big	-2033
ification	-2034
ique	-2035
key	-2036
▁hot	-2037
▁doc	-2038
▁;	-2039
orm	-2040
▁wil	-2041
▁anal	-2042
▁impro	-2043
▁germany	-2044
▁obs	-2045
▁either	-2046
▁schools	-2047
▁pen	-2048
apt	-2049
iament	-2050
▁eventually	-2051
▁novel	-2052
▁sn	-2053
ey	-2054
▁wat	-2055
▁recogn	-2056
▁(0000–0000),	-2057
▁fle	-2058
time	-2059
▁type	-2060
bc	-2061
▁put	-2062
▁news	-2063
▁campaign	-2064
▁get	-2065
▁significant	-2066
anted	-2067
▁successful	-2068
▁phot	-2069
▁chief	-2070
▁japanese	-2071
▁stri	-2072
ensive	-2073
-000	-2074
▁princ	-2075
▁bal	-2076
▁eastern	-2077
▁liber	-2078
▁00.00	-2079
▁recorded	-2080
▁agre	-2081
▁earth	-2082
▁bir	-2083
▁african	-2084
▁tom	-2085
▁step	-2086
▁described	-2087
▁gun	-2088
▁parliament	-2089
▁vo	-2090
ership	-2091
▁hom	-2092
▁(000	-2093
▁christian	-2094
▁wid	-2095
hel	-2096
▁range	-2097
men	-2098
▁video	-2099
▁instead	-2100
uals	-2101
▁rather	-2102
ipp	-2103
▁india	-2104
ened	-2105
▁across	-2106
▁dut	-2107
▁access	-2108
▁object	-2109
▁despite	-2110
oney	-2111
ades	-2112
▁fest	-2113
▁release	-2114
▁suggest	-2115
not	-2116
rie	-2117
ole	-2118
▁cath	-2119
▁pain	-2120
val	-2121
ergy	-2122
ctions	-2123
aces	-2124
▁tex	-2125
▁taken	-2126
▁enc	-2127
▁polic	-2128
▁round	-2129
▁key	-2130
ceed	-2131
▁lower	-2132
▁trib	-2133
isc	-2134
▁becom	-2135
hib	-2136
▁eight	-2137
▁working	-2138
▁police	-2139
rian	-2140
ising	-2141
▁territ	-2142
▁rob	-2143
▁study	-2144
▁below	-2145
stand	-2146
fe	-2147
▁review	-2148
▁groups	-2149
▁love	-2150
▁units	-2151
aps	-2152
gl	-2153
▁et	-2154
▁episode	-2155
▁sometimes	-2156
▁guitar	-2157
▁native	-2158
year	-2159
ls	-2160
itz	-2161
▁rights	-2162
▁construction	-2163
▁ach	-2164
▁daugh	-2165
inese	-2166
▁know	-2167
acy	-2168
ude	-2169
▁thomas	-2170
ishing	-2171
▁mel	-2172
ellow	-2173
▁sem	-2174
▁sus	-2175
▁federal	-2176
face	-2177
han	-2178
▁entire	-2179
▁capital	-2180
▁frequ	-2181
▁today	-2182
▁countries	-2183
rary	-2184
▁style	-2185
▁airport	-2186
▁followed	-2187
▁magaz	-2188
▁transport	-2189
berg	-2190
elling	-2191
▁mary	-2192
▁books	-2193
▁cit	-2194
▁township	-2195
▁0.	-2196
head	-2197
▁bridge	-2198
asing	-2199
isl	-2200
▁movement	-2201
▁canadian	-2202
ula	-2203
▁above	-2204
inal	-2205
▁fa	-2206
aker	-2207
▁data	-2208
road	-2209
▁chann	-2210
ensity	-2211
ca	-2212
▁track	-2213
▁months	-2214
▁past	-2215
▁change	-2216
▁municip	-2217
▁performance	-2218
▁pan	-2219
▁china	-2220
ams	-2221
▁designed	-2222
ume	-2223
outh	-2224
▁("	-2225
ston	-2226
iers	-2227
ania	-2228
▁washing	-2229
▁hus	-2230
▁contrib	-2231
▁discover	-2232
ply	-2233
ography	-2234
ym	-2235
▁broadcast	-2236
▁theat	-2237
▁elected	-2238
▁lord	-2239
onment	-2240
▁subject	-2241
▁fer	-2242
▁henry	-2243
▁0:00	-2244
fic	-2245
▁colon	-2246
▁opt	-2247
▁seven	-2248
▁songs	-2249
▁subsequ	-2250
▁natural	-2251
▁generally	-2252
ilities	-2253
▁introduced	-2254
▁gar	-2255
ga	-2256
▁events	-2257
▁includes	-2258
▁louis	-2259
oss	-2260
▁mach	-2261
view	-2262
▁males	-2263
ught	-2264
wer	-2265
▁summer	-2266
▁features	-2267
▁pit	-2268
pecially	-2269
▁tar	-2270
cks	-2271
ought	-2272
▁ran	-2273
▁parts	-2274
▁particip	-2275
▁cho	-2276
atory	-2277
▁gir	-2278
ita	-2279
▁meas	-2280
▁fig	-2281
▁frank	-2282
▁races	-2283
aries	-2284
▁washington	-2285
▁food	-2286
▁fut	-2287
oviet	-2288
▁possible	-2289
▁worked	-2290
▁richard	-2291
▁envir	-2292
▁reb	-2293
▁reported	-2294
▁assist	-2295
▁mix	-2296
▁joined	-2297
▁females	-2298
▁log	-2299
▁democr	-2300
▁consist	-2301
icated	-2302
▁remained	-2303
▁let	-2304
▁almost	-2305
▁ben	-2306
▁km	-2307
ications	-2308
▁bud	-2309
▁pay	-2310
▁dig	-2311
▁chinese	-2312
▁fav	-2313
▁close	-2314
▁away	-2315
▁princip	-2316
▁saw	-2317
erous	-2318
▁committe	-2319
▁tv	-2320
▁occur	-2321
▁replaced	-2322
▁cut	-2323
▁ut	-2324
▁training	-2325
▁neg	-2326
uation	-2327
▁private	-2328
▁respect	-2329
▁governor	-2330
▁alex	-2331
▁surv	-2332
▁ox	-2333
▁deter	-2334
▁foc	-2335
▁viol	-2336
▁look	-2337
▁accept	-2338
ari	-2339
ores	-2340
▁image	-2341
▁blue	-2342
ope	-2343
▁action	-2344
▁transl	-2345
amous	-2346
▁points	-2347
ux	-2348
▁rank	-2349
▁michael	-2350
▁hun	-2351
▁theory	-2352
▁say	-2353
▁least	-2354
ky	-2355
ician	-2356
▁help	-2357
▁gave	-2358
▁leading	-2359
▁performed	-2360
▁independent	-2361
▁regular	-2362
imate	-2363
itect	-2364
▁higher	-2365
▁travel	-2366
▁respons	-2367
arily	-2368
aves	-2369
▁ham	-2370
ba	-2371
▁angel	-2372
▁function	-2373
▁congress	-2374
back	-2375
tt	-2376
▁oppos	-2377
cing	-2378
ems	-2379
▁able	-2380
ush	-2381
▁match	-2382
▁account	-2383
▁featured	-2384
ida	-2385
▁mad	-2386
oms	-2387
oor	-2388
▁acqu	-2389
▁achie	-2390
▁conserv	-2391
▁000,000	-2392
like	-2393
▁fif	-2394
▁certain	-2395
mp	-2396
▁regard	-2397
▁empire	-2398
oon	-2399
")	-2400
chan	-2401
▁pac	-2402
▁cand	-2403
▁itself	-2404
▁connect	-2405
nes	-2406
lect	-2407
▁soviet	-2408
.''	-2409
▁valley	-2410
▁anti	-2411
▁brown	-2412
▁0000:	-2413
▁scott	-2414
ateg	-2415
▁card	-2416
mal	-2417
▁peter	-2418
▁soon	-2419
sec	-2420
▁provided	-2421
▁stage	-2422
▁especially	-2423
▁leader	-2424
▁media	-2425
don	-2426
ufact	-2427
▁republic	-2428
ving	-2429
▁individuals	-2430
enth	-2431
▁traditional	-2432
▁0–0	-2433
ya	-2434
▁architect	-2435
▁prem	-2436
▁flight	-2437
▁dom	-2438
can	-2439
▁corn	-2440
▁critic	-2441
▁contract	-2442
▁mex	-2443
▁nar	-2444
▁ze	-2445
iting	-2446
utions	-2447
tic	-2448
ij	-2449
▁foreign	-2450
▁“	-2451
ference	-2452
▁killed	-2453
▁magazine	-2454
▁distrib	-2455
▁economic	-2456
▁australian	-2457
▁hosp	-2458
idents	-2459
▁outside	-2460
▁eth	-2461
▁players	-2462
ground	-2463
igned	-2464
ander	-2465
▁scient	-2466
▁beginning	-2467
▁imm	-2468
▁manufact	-2469
▁color	-2470
▁navy	-2471
▁ce	-2472
▁trade	-2473
▁energy	-2474
utive	-2475
▁tax	-2476
▁sex	-2477
▁journal	-2478
medi	-2479
rick	-2480
▁stra	-2481
▁density	-2482
▁whose	-2483
▁institute	-2484
ont	-2485
▁quest	-2486
car	-2487
aged	-2488
▁means	-2489
▁bran	-2490
▁technology	-2491
▁studies	-2492
▁syn	-2493
▁plat	-2494
▁jose	-2495
une	-2496
▁spanish	-2497
ror	-2498
▁corpor	-2499
well	-2500
▁husband	-2501
▁domin	-2502
ste	-2503
▁professional	-2504
▁section	-2505
▁smith	-2506
▁committee	-2507
▁complex	-2508
▁provide	-2509
▁dan	-2510
▁ca	-2511
▁industry	-2512
▁francis	-2513
▁catholic	-2514
▁appointed	-2515
bour	-2516
▁poet	-2517
▁paris	-2518
▁daughter	-2519
▁ara	-2520
airs	-2521
enue	-2522
▁prior	-2523
▁q	-2524
▁prime	-2525
▁deal	-2526
▁playing	-2527
▁commercial	-2528
▁000,	-2529
oper	-2530
▁plant	-2531
right	-2532
▁environment	-2533
▁bow	-2534
ria	-2535
▁limited	-2536
lit	-2537
▁primary	-2538
▁added	-2539
▁library	-2540
▁festival	-2541
▁gard	-2542
hood	-2543
lands	-2544
▁exam	-2545
▁actor	-2546
▁mont	-2547
▁accom	-2548
▁maint	-2549
▁except	-2550
▁victor	-2551
▁occup	-2552
har	-2553
tra	-2554
ength	-2555
▁future	-2556
.)	-2557
▁unit	-2558
▁esc	-2559
▁ire	-2560
▁bat	-2561
ked	-2562
▁arts	-2563
aching	-2564
▁operations	-2565
dr	-2566
col	-2567
▁soft	-2568
▁famous	-2569
▁forest	-2570
ires	-2571
atives	-2572
▁tim	-2573
▁virgin	-2574
▁completed	-2575
▁emb	-2576
▁russian	-2577
▁shows	-2578
▁destroy	-2579
hest	-2580
see	-2581
▁come	-2582
▁too	-2583
▁brought	-2584
▁van	-2585
olf	-2586
asion	-2587
▁academy	-2588
▁speed	-2589
▁self	-2590
▁concept	-2591
▁minor	-2592
▁culture	-2593
▁emer	-2594
gu	-2595
▁required	-2596
▁neigh	-2597
▁wal	-2598
ends	-2599
▁cam	-2600
▁prop	-2601
rup	-2602
▁involved	-2603
▁italian	-2604
▁assemb	-2605
▁edition	-2606
▁multip	-2607
▁sports	-2608
icles	-2609
urity	-2610
▁via	-2611
▁veh	-2612
ension	-2613
odes	-2614
▁legisl	-2615
ike	-2616
▁sand	-2617
ging	-2618
▁plann	-2619
▁rap	-2620
po	-2621
▁abs	-2622
▁ly	-2623
▁00.00%	-2624
▁cele	-2625
edy	-2626
▁saint	-2627
hy	-2628
bit	-2629
rial	-2630
orial	-2631
▁mission	-2632
bers	-2633
▁altern	-2634
▁currently	-2635
king	-2636
▁films	-2637
▁allowed	-2638
etic	-2639
wing	-2640
arian	-2641
▁province	-2642
▁clear	-2643
uz	-2644
▁0000).	-2645
▁terms	-2646
▁revolution	-2647
▁collection	-2648
▁bul	-2649
▁channel	-2650
▁organization	-2651
▁approxim	-2652
ned	-2653
▁border	-2654
▁relationship	-2655
rel	-2656
▁remov	-2657
▁cd	-2658
▁break	-2659
gon	-2660
▁cust	-2661
▁computer	-2662
▁management	-2663
▁psy	-2664
▁schol	-2665
▁chap	-2666
▁pun	-2667
▁sir	-2668
orpor	-2669
▁ban	-2670
▁lines	-2671
▁staff	-2672
▁mountain	-2673
writ	-2674
iff	-2675
▁characters	-2676
▁adop	-2677
ream	-2678
lant	-2679
▁philos	-2680
ii	-2681
▁stated	-2682
▁stop	-2683
clus	-2684
ram	-2685
▁thought	-2686
▁ireland	-2687
▁cred	-2688
▁dyn	-2689
oke	-2690
ites	-2691
▁changed	-2692
▁earlier	-2693
ny	-2694
▁drum	-2695
▁pil	-2696
▁ord	-2697
▁africa	-2698
▁medical	-2699
▁ha	-2700
spe	-2701
asons	-2702
▁cab	-2703
▁fair	-2704
ishop	-2705
▁queen	-2706
▁sett	-2707
reen	-2708
▁ey	-2709
ee	-2710
▁writing	-2711
▁concern	-2712
lim	-2713
ada	-2714
▁chic	-2715
▁singer	-2716
tar	-2717
ficult	-2718
known	-2719
▁reached	-2720
▁greek	-2721
▁prob	-2722
▁penn	-2723
▁heart	-2724
based	-2725
anded	-2726
cul	-2727
▁individual	-2728
▁ess	-2729
hol	-2730
▁nation	-2731
▁islands	-2732
▁ast	-2733
no	-2734
▁cra	-2735
▁signed	-2736
▁associated	-2737
▁difficult	-2738
▁loss	-2739
rael	-2740
▁hospital	-2741
▁mos	-2742
▁spring	-2743
▁purch	-2744
▁text	-2745
▁transfer	-2746
▁chem	-2747
▁master	-2748
▁referred	-2749
olk	-2750
▁spread	-2751
▁prince	-2752
reat	-2753
▁increased	-2754
ibility	-2755
▁behind	-2756
▁historical	-2757
▁structure	-2758
▁pie	-2759
▁spir	-2760
▁alone	-2761
ios	-2762
▁code	-2763
put	-2764
▁finan	-2765
ump	-2766
▁temper	-2767
▁swed	-2768
▁theatre	-2769
0,	-2770
ingu	-2771
▁establish	-2772
▁decided	-2773
lying	-2774
▁0000-0000	-2775
enced	-2776
▁box	-2777
▁/	-2778
aur	-2779
uments	-2780
▁lay	-2781
▁writer	-2782
▁document	-2783
acher	-2784
▁operation	-2785
ucle	-2786
▁inte	-2787
▁musical	-2788
urban	-2789
▁religious	-2790
bon	-2791
▁money	-2792
▁student	-2793
▁glob	-2794
▁inn	-2795
alled	-2796
▁pacific	-2797
ift	-2798
▁chart	-2799
▁texas	-2800
▁additional	-2801
▁celebr	-2802
rd	-2803
▁heavy	-2804
▁fourth	-2805
ady	-2806
▁carol	-2807
▁nomin	-2808
▁pow	-2809
▁personal	-2810
▁majority	-2811
erve	-2812
▁chair	-2813
hab	-2814
▁larger	-2815
▁consider	-2816
▁bad	-2817
gree	-2818
▁walk	-2819
ero	-2820
▁emper	-2821
▁male	-2822
board	-2823
▁ancient	-2824
▁names	-2825
▁prison	-2826
hi	-2827
elled	-2828
ini	-2829
▁pred	-2830
eral	-2831
▁here	-2832
▁candid	-2833
▁constitution	-2834
▁0-	-2835
▁paren	-2836
▁surround	-2837
▁collect	-2838
▁particularly	-2839
▁studio	-2840
▁mechan	-2841
iences	-2842
ota	-2843
ready	-2844
▁complete	-2845
▁settle	-2846
▁termin	-2847
▁policy	-2848
▁honor	-2849
inct	-2850
▁related	-2851
▁lack	-2852
ask	-2853
war	-2854
▁boy	-2855
▁gall	-2856
▁whom	-2857
ili	-2858
▁changes	-2859
▁placed	-2860
▁gal	-2861
▁bass	-2862
cont	-2863
▁woman	-2864
aled	-2865
▁towards	-2866
▁equip	-2867
▁caused	-2868
umn	-2869
▁movie	-2870
▁pra	-2871
▁location	-2872
▁source	-2873
with	-2874
▁birth	-2875
▁housing	-2876
▁=	-2877
▁bound	-2878
▁psych	-2879
▁security	-2880
uated	-2881
mission	-2882
▁britain	-2883
uff	-2884
reme	-2885
▁oly	-2886
▁iii	-2887
oid	-2888
▁flor	-2889
▁pict	-2890
istan	-2891
▁taking	-2892
▁inj	-2893
elves	-2894
aring	-2895
▁stone	-2896
▁$00,000.	-2897
▁keep	-2898
▁element	-2899
rad	-2900
▁evidence	-2901
lor	-2902
▁longer	-2903
▁active	-2904
▁sequ	-2905
tv	-2906
▁forms	-2907
▁cities	-2908
▁amount	-2909
▁numerous	-2910
vert	-2911
▁better	-2912
▁ult	-2913
...	-2914
▁olymp	-2915
▁might	-2916
▁issue	-2917
▁exc	-2918
▁subst	-2919
▁previously	-2920
▁sant	-2921
▁iv	-2922
riage	-2923
▁mr	-2924
▁rate	-2925
▁react	-2926
pa	-2927
▁highway	-2928
star	-2929
sw	-2930
▁highest	-2931
▁practice	-2932
▁train	-2933
▁percent	-2934
▁labor	-2935
▁bomb	-2936
▁peace	-2937
▁buildings	-2938
▁blood	-2939
▁oil	-2940
▁move	-2941
▁bene	-2942
''),	-2943
▁irish	-2944
ken	-2945
▁uses	-2946
▁our	-2947
ques	-2948
▁nature	-2949
bol	-2950
▁ens	-2951
rated	-2952
da	-2953
▁legal	-2954
part	-2955
porary	-2956
▁quick	-2957
▁cases	-2958
▁initially	-2959
▁officer	-2960
▁scot	-2961
▁always	-2962
ado	-2963
▁awards	-2964
▁companies	-2965
▁already	-2966
▁investig	-2967
met	-2968
abor	-2969
▁castle	-2970
▁chicago	-2971
vey	-2972
▁joseph	-2973
▁lie	-2974
▁ris	-2975
▁israel	-2976
▁meaning	-2977
▁tal	-2978
wa	-2979
▁teams	-2980
▁emperor	-2981
▁magn	-2982
▁degree	-2983
use	-2984
▁reve	-2985
aland	-2986
bre	-2987
▁micro	-2988
▁artist	-2989
▁immedi	-2990
▁remains	-2991
▁squad	-2992
▁ur	-2993
▁influence	-2994
▁date	-2995
▁martin	-2996
▁interview	-2997
▁programs	-2998
▁annual	-2999
▁course	-3000
asc	-3001
▁cause	-3002
▁ol	-3003
▁stations	-3004
▁surface	-3005
▁recent	-3006
▁awarded	-3007
mselves	-3008
▁electric	-3009
itch	-3010
▁kore	-3011
tered	-3012
ider	-3013
atively	-3014
ulf	-3015
▁words	-3016
▁dead	-3017
▁nucle	-3018
▁burn	-3019
ify	-3020
▁themselves	-3021
▁link	-3022
sm	-3023
▁dark	-3024
▁runs	-3025
▁fel	-3026
▁kar	-3027
▁wild	-3028
▁numbers	-3029
za	-3030
▁campus	-3031
change	-3032
▁finally	-3033
▁hours	-3034
▁progress	-3035
rem	-3036
isher	-3037
▁brand	-3038
plement	-3039
▁regional	-3040
▁secretary	-3041
istry	-3042
▁newsp	-3043
▁approximately	-3044
▁lik	-3045
ters	-3046
▁value	-3047
▁rule	-3048
▁seat	-3049
▁upper	-3050
▁***	-3051
▁believed	-3052
▁bc	-3053
▁amb	-3054
▁require	-3055
erved	-3056
rying	-3057
▁bird	-3058
▁stad	-3059
olit	-3060
▁haw	-3061
inary	-3062
▁lived	-3063
american	-3064
inet	-3065
▁gas	-3066
bridge	-3067
▁autom	-3068
▁rat	-3069
town	-3070
▁tun	-3071
▁quar	-3072
ds	-3073
▁length	-3074
▁guard	-3075
▁directed	-3076
▁ended	-3077
oo	-3078
▁closed	-3079
bury	-3080
win	-3081
ona	-3082
eg	-3083
▁financial	-3084
▁atlant	-3085
▁happ	-3086
▁give	-3087
▁typically	-3088
▁languages	-3089
▁specific	-3090
▁greater	-3091
ola	-3092
▁contains	-3093
onstr	-3094
lam	-3095
▁captain	-3096
▁appears	-3097
▁separate	-3098
▁stock	-3099
inent	-3100
rief	-3101
house	-3102
▁flag	-3103
▁therefore	-3104
▁vocals	-3105
▁cer	-3106
▁issues	-3107
▁italy	-3108
isions	-3109
izing	-3110
▁running	-3111
▁bell	-3112
▁variety	-3113
▁increasing	-3114
ties	-3115
▁problems	-3116
uth	-3117
▁complet	-3118
rich	-3119
▁owned	-3120
▁actress	-3121
▁miles	-3122
iance	-3123
▁jer	-3124
▁alle	-3125
▁historic	-3126
▁increase	-3127
standing	-3128
▁territory	-3129
▁troops	-3130
▁0000;	-3131
▁edward	-3132
▁weap	-3133
▁administration	-3134
▁mess	-3135
▁electron	-3136
iant	-3137
cript	-3138
uge	-3139
▁someone	-3140
▁mostly	-3141
nel	-3142
▁farm	-3143
dra	-3144
▁shown	-3145
▁recording	-3146
▁create	-3147
mitted	-3148
ros	-3149
▁ec	-3150
mod	-3151
▁property	-3152
▁conference	-3153
▁forced	-3154
▁claimed	-3155
▁residents	-3156
▁railroad	-3157
▁continu	-3158
▁da	-3159
ena	-3160
▁drop	-3161
▁remain	-3162
▁angeles	-3163
▁opening	-3164
▁display	-3165
▁columb	-3166
▁citiz	-3167
▁defeated	-3168
▁mile	-3169
oura	-3170
▁discuss	-3171
▁motor	-3172
▁integr	-3173
▁prevent	-3174
▁paper	-3175
▁jim	-3176
▁necess	-3177
▁incorpor	-3178
▁results	-3179
▁passed	-3180
rast	-3181
▁manager	-3182
▁detail	-3183
▁pack	-3184
▁winn	-3185
▁ho	-3186
▁appearance	-3187
▁indic	-3188
▁qual	-3189
▁exhib	-3190
famil	-3191
▁zealand	-3192
/00	-3193
▁latter	-3194
▁status	-3195
▁focus	-3196
pected	-3197
▁mir	-3198
▁disp	-3199
▁asian	-3200
▁$0	-3201
▁estim	-3202
▁launched	-3203
ura	-3204
▁cart	-3205
▁jewish	-3206
▁nearly	-3207
light	-3208
▁industrial	-3209
▁chall	-3210
▁ships	-3211
▁ven	-3212
gar	-3213
ote	-3214
▁kh	-3215
▁..	-3216
▁democratic	-3217
▁visit	-3218
▁room	-3219
ulated	-3220
▁latin	-3221
▁elements	-3222
ker	-3223
▁face	-3224
▁flow	-3225
▁engineering	-3226
ington	-3227
▁confl	-3228
wide	-3229
▁block	-3230
▁republican	-3231
vi	-3232
▁constant	-3233
sch	-3234
▁professor	-3235
▁noted	-3236
mark	-3237
▁target	-3238
▁assembly	-3239
▁enough	-3240
▁elev	-3241
ffic	-3242
▁foundation	-3243
ricult	-3244
▁virginia	-3245
▁nine	-3246
onse	-3247
enc	-3248
▁arab	-3249
▁whether	-3250
▁stadium	-3251
▁arran	-3252
▁screen	-3253
▁dog	-3254
ledge	-3255
▁crew	-3256
▁thr	-3257
▁supported	-3258
▁baseball	-3259
▁cas	-3260
▁wide	-3261
▁poor	-3262
ysis	-3263
▁takes	-3264
▁webs	-3265
▁lic	-3266
▁done	-3267
▁protest	-3268
▁mathem	-3269
▁ath	-3270
▁wa	-3271
▁georg	-3272
▁rang	-3273
▁proposed	-3274
▁dise	-3275
more	-3276
eks	-3277
▁producer	-3278
▁smaller	-3279
▁authority	-3280
▁brief	-3281
▁your	-3282
▁got	-3283
▁insp	-3284
mir	-3285
▁directly	-3286
▁path	-3287
▁artists	-3288
▁operated	-3289
gypt	-3290
aded	-3291
▁hop	-3292
▁metal	-3293
▁reason	-3294
▁ded	-3295
▁ba	-3296
▁era	-3297
stra	-3298
sen	-3299
▁decision	-3300
rey	-3301
awa	-3302
▁politician	-3303
▁goal	-3304
▁agricult	-3305
ette	-3306
▁medal	-3307
▁nations	-3308
ression	-3309
▁article	-3310
▁mention	-3311
▁cultural	-3312
▁obt	-3313
▁letter	-3314
▁coach	-3315
▁laws	-3316
▁mexico	-3317
▁die	-3318
▁fleet	-3319
▁becoming	-3320
aches	-3321
▁sav	-3322
▁deliver	-3323
▁provides	-3324
eds	-3325
▁contem	-3326
bi	-3327
▁executive	-3328
▁deep	-3329
▁finished	-3330
resp	-3331
);	-3332
▁reform	-3333
▁duke	-3334
iano	-3335
igan	-3336
▁shot	-3337
▁drug	-3338
ja	-3339
▁beach	-3340
uries	-3341
▁offered	-3342
▁corps	-3343
▁subsequently	-3344
▁stories	-3345
pose	-3346
▁problem	-3347
▁products	-3348
older	-3349
itation	-3350
▁winter	-3351
▁conditions	-3352
▁lee	-3353
▁produce	-3354
▁commonly	-3355
▁lin	-3356
▁observ	-3357
▁imper	-3358
▁spirit	-3359
och	-3360
▁silver	-3361
▁racial	-3362
▁saf	-3363
▁iron	-3364
azz	-3365
▁diss	-3366
▁makes	-3367
▁activities	-3368
ands	-3369
▁pap	-3370
ylv	-3371
▁failed	-3372
ua	-3373
oned	-3374
ously	-3375
▁bab	-3376
▁victory	-3377
▁effects	-3378
▁branch	-3379
▁bon	-3380
▁multiple	-3381
▁rot	-3382
ala	-3383
▁naval	-3384
sa	-3385
bro	-3386
▁debut	-3387
itude	-3388
▁competition	-3389
▁web	-3390
▁whole	-3391
▁protect	-3392
oe	-3393
▁address	-3394
▁justice	-3395
▁carried	-3396
▁physical	-3397
ips	-3398
▁spent	-3399
▁infant	-3400
ano	-3401
▁vote	-3402
▁places	-3403
▁growth	-3404
▁types	-3405
▁houses	-3406
▁oh	-3407
▁makeup	-3408
char	-3409
down	-3410
ils	-3411
▁software	-3412
▁fra	-3413
▁00–00	-3414
▁double	-3415
▁friends	-3416
imin	-3417
ech	-3418
▁ib	-3419
▁000.	-3420
▁(0000-0000	-3421
iles	-3422
▁idea	-3423
▁weeks	-3424
▁experience	-3425
chester	-3426
list	-3427
▁yet	-3428
▁philosoph	-3429
gers	-3430
▁brig	-3431
▁marriage	-3432
▁label	-3433
▁response	-3434
▁egypt	-3435
isation	-3436
▁starting	-3437
▁wel	-3438
ental	-3439
▁voice	-3440
ani	-3441
zil	-3442
▁ice	-3443
▁digital	-3444
▁nick	-3445
arm	-3446
▁interp	-3447
▁beat	-3448
▁mob	-3449
▁anth	-3450
▁register	-3451
▁wrest	-3452
▁coal	-3453
rier	-3454
▁spain	-3455
▁levels	-3456
▁ic	-3457
▁dance	-3458
▁going	-3459
ugg	-3460
ki	-3461
▁sac	-3462
▁meeting	-3463
▁$000	-3464
▁turned	-3465
▁luc	-3466
uate	-3467
▁resour	-3468
▁widely	-3469
▁comment	-3470
▁doctor	-3471
▁machine	-3472
mas	-3473
ellig	-3474
▁attract	-3475
▁stan	-3476
▁memorial	-3477
▁urban	-3478
where	-3479
▁liberal	-3480
add	-3481
▁bob	-3482
arters	-3483
▁mcc	-3484
▁dun	-3485
astic	-3486
▁commander	-3487
▁florida	-3488
bar	-3489
oma	-3490
▁peak	-3491
agn	-3492
▁leaving	-3493
▁kind	-3494
▁counter	-3495
▁highly	-3496
▁murder	-3497
ylvania	-3498
fect	-3499
▁mayor	-3500
▁freed	-3501
▁map	-3502
▁temple	-3503
ols	-3504
▁portug	-3505
▁entered	-3506
anced	-3507
▁pressure	-3508
▁hur	-3509
gs	-3510
▁jul	-3511
▁enem	-3512
▁notable	-3513
kins	-3514
▁dutch	-3515
▁russia	-3516
▁custom	-3517
stein	-3518
ables	-3519
gely	-3520
ients	-3521
▁bbc	-3522
▁prize	-3523
▁maxim	-3524
▁()	-3525
mann	-3526
▁winning	-3527
▁tower	-3528
▁true	-3529
▁remaining	-3530
▁stars	-3531
▁lif	-3532
hist	-3533
▁sens	-3534
▁behav	-3535
▁adj	-3536
▁corporation	-3537
dro	-3538
ipl	-3539
undred	-3540
▁editor	-3541
▁scene	-3542
▁householder	-3543
▁mut	-3544
–000	-3545
uis	-3546
▁bring	-3547
▁primarily	-3548
▁twent	-3549
▁jones	-3550
▁crown	-3551
iana	-3552
oston	-3553
▁fellow	-3554
▁couples	-3555
▁consum	-3556
▁oce	-3557
▁williams	-3558
▁ta	-3559
km	-3560
rative	-3561
▁mind	-3562
▁orche	-3563
class	-3564
▁conver	-3565
ella	-3566
▁compl	-3567
▁nearby	-3568
aught	-3569
▁carl	-3570
fit	-3571
ession	-3572
▁avenue	-3573
▁discovered	-3574
▁os	-3575
hire	-3576
prod	-3577
▁likely	-3578
rid	-3579
shire	-3580
▁mainly	-3581
▁concert	-3582
bra	-3583
▁provin	-3584
▁elections	-3585
▁website	-3586
▁initial	-3587
ko	-3588
▁resist	-3589
▁intended	-3590
▁bishop	-3591
▁threat	-3592
▁tourn	-3593
oring	-3594
▁learn	-3595
▁...	-3596
▁creek	-3597
▁conduct	-3598
▁drive	-3599
▁sister	-3600
▁presented	-3601
ersey	-3602
▁wales	-3603
▁question	-3604
▁literature	-3605
▁polish	-3606
mond	-3607
ato	-3608
▁pick	-3609
va	-3610
ns	-3611
▁models	-3612
▁jes	-3613
▁attended	-3614
do	-3615
gal	-3616
je	-3617
aily	-3618
icient	-3619
▁operating	-3620
▁von	-3621
▁basis	-3622
▁ple	-3623
▁wars	-3624
▁represented	-3625
▁rare	-3626
water	-3627
agon	-3628
▁largely	-3629
▁volume	-3630
▁sport	-3631
which	-3632
▁stay	-3633
▁succeed	-3634
▁ring	-3635
▁sar	-3636
rovers	-3637
▁hundred	-3638
▁determin	-3639
▁plans	-3640
▁senior	-3641
▁helped	-3642
▁000.0	-3643
fort	-3644
▁responsible	-3645
▁inside	-3646
▁think	-3647
0.	-3648
abeth	-3649
▁categ	-3650
reng	-3651
▁johnson	-3652
▁tenn	-3653
▁symbol	-3654
▁ful	-3655
yer	-3656
worth	-3657
▁cars	-3658
respond	-3659
▁online	-3660
ounder	-3661
▁cub	-3662
wan	-3663
):	-3664
▁fit	-3665
▁sail	-3666
▁dial	-3667
▁hero	-3668
▁tracks	-3669
▁ram	-3670
▁cry	-3671
▁replace	-3672
now	-3673
▁quickly	-3674
book	-3675
istics	-3676
icted	-3677
▁graph	-3678
▁rain	-3679
▁direction	-3680
▁enter	-3681
iber	-3682
igr	-3683
▁tell	-3684
▁kenn	-3685
▁asked	-3686
▁trust	-3687
bed	-3688
▁girl	-3689
mad	-3690
▁poly	-3691
▁recently	-3692
▁hung	-3693
▁minutes	-3694
▁listed	-3695
ees	-3696
▁workers	-3697
▁wing	-3698
▁arms	-3699
▁actually	-3700
▁soldiers	-3701
▁scotland	-3702
▁ash	-3703
▁dar	-3704
▁headqu	-3705
rupt	-3706
▁towns	-3707
▁municipality	-3708
▁agreement	-3709
illa	-3710
▁neighbor	-3711
▁controvers	-3712
overty	-3713
▁adopted	-3714
sylvania	-3715
▁entertain	-3716
▁shar	-3717
▁raised	-3718
miss	-3719
bel	-3720
▁thous	-3721
▁extended	-3722
▁ability	-3723
illy	-3724
▁share	-3725
▁correspond	-3726
▁teacher	-3727
▁mis	-3728
▁intellig	-3729
kin	-3730
▁serve	-3731
under	-3732
▁wanted	-3733
▁issued	-3734
▁und	-3735
▁camer	-3736
▁poverty	-3737
▁officers	-3738
teen	-3739
▁implement	-3740
▁advent	-3741
▁brazil	-3742
▁brothers	-3743
▁municipal	-3744
▁told	-3745
▁repe	-3746
▁defin	-3747
aq	-3748
illed	-3749
▁removed	-3750
vement	-3751
▁wear	-3752
▁vari	-3753
▁islam	-3754
ault	-3755
enant	-3756
▁carolina	-3757
▁defense	-3758
▁apart	-3759
thur	-3760
ises	-3761
▁hab	-3762
mun	-3763
ws	-3764
nam	-3765
▁fast	-3766
▁organiz	-3767
▁concent	-3768
▁experiment	-3769
thing	-3770
▁divided	-3771
▁independence	-3772
▁rules	-3773
overs	-3774
▁equipment	-3775
▁treatment	-3776
▁id	-3777
▁jac	-3778
▁needed	-3779
▁potential	-3780
▁quarter	-3781
▁global	-3782
ji	-3783
adel	-3784
▁contact	-3785
cles	-3786
▁les	-3787
▁jr	-3788
▁albums	-3789
enger	-3790
▁extra	-3791
▁jean	-3792
▁jersey	-3793
▁immediately	-3794
'').	-3795
▁instrument	-3796
▁prec	-3797
akers	-3798
▁pennsylvania	-3799
ighter	-3800
▁quality	-3801
▁joint	-3802
▁boston	-3803
▁partn	-3804
▁rapid	-3805
▁streng	-3806
rical	-3807
▁simply	-3808
▁jackson	-3809
pass	-3810
▁medic	-3811
▁distinct	-3812
ias	-3813
▁alexander	-3814
▁regiment	-3815
▁chairman	-3816
stone	-3817
nic	-3818
set	-3819
▁tree	-3820
▁bern	-3821
nor	-3822
▁composed	-3823
▁ott	-3824
rect	-3825
▁adult	-3826
▁nuclear	-3827
arent	-3828
▁consists	-3829
fa	-3830
ening	-3831
▁analysis	-3832
wise	-3833
▁guest	-3834
▁cannot	-3835
▁capac	-3836
unt	-3837
iger	-3838
▁illust	-3839
▁spect	-3840
▁cav	-3841
attle	-3842
▁note	-3843
▁scholars	-3844
▁mit	-3845
▁albert	-3846
ng	-3847
▁rose	-3848
iro	-3849
ills	-3850
▁lett	-3851
▁wit	-3852
▁knowledge	-3853
▁budd	-3854
anda	-3855
▁sources	-3856
▁economy	-3857
▁versions	-3858
▁francisco	-3859
what	-3860
▁destroyed	-3861
▁vice	-3862
▁leaders	-3863
▁marsh	-3864
▁cooper	-3865
opher	-3866
▁probably	-3867
▁store	-3868
▁pul	-3869
▁rome	-3870
▁hispan	-3871
uan	-3872
▁columbia	-3873
tr	-3874
▁horse	-3875
▁ordered	-3876
▁continue	-3877
▁fell	-3878
ights	-3879
▁citizens	-3880
▁imperial	-3881
▁arrived	-3882
▁od	-3883
▁labour	-3884
olitan	-3885
onent	-3886
▁parents	-3887
▁ell	-3888
▁senate	-3889
▁assum	-3890
▁youth	-3891
asty	-3892
▁constructed	-3893
ivity	-3894
▁becomes	-3895
▁newspaper	-3896
▁opposition	-3897
▁arrest	-3898
▁sched	-3899
▁shop	-3900
▁residing	-3901
▁score	-3902
▁approach	-3903
▁plays	-3904
▁request	-3905
▁sha	-3906
▁leave	-3907
▁shortly	-3908
▁conservative	-3909
▁fifth	-3910
▁mathemat	-3911
▁applied	-3912
▁clin	-3913
▁serving	-3914
▁basket	-3915
▁parish	-3916
▁ax	-3917
▁collabor	-3918
▁overs	-3919
▁combined	-3920
▁mand	-3921
▁fish	-3922
fin	-3923
▁asia	-3924
ansas	-3925
▁academic	-3926
ety	-3927
▁cham	-3928
ancy	-3929
ulations	-3930
▁morn	-3931
iter	-3932
▁rand	-3933
▁exchange	-3934
▁protection	-3935
hl	-3936
▁steel	-3937
rane	-3938
▁prominent	-3939
onents	-3940
▁scen	-3941
▁officially	-3942
▁reflect	-3943
▁feel	-3944
▁measure	-3945
onto	-3946
▁basic	-3947
▁acquired	-3948
john	-3949
ching	-3950
rance	-3951
▁parties	-3952
▁figure	-3953
▁ocean	-3954
▁quant	-3955
▁eliz	-3956
▁powers	-3957
▁compared	-3958
▁bey	-3959
▁fox	-3960
▁rh	-3961
▁overall	-3962
▁featuring	-3963
▁resulting	-3964
▁contemporary	-3965
▁gh	-3966
▁favor	-3967
▁search	-3968
▁activity	-3969
▁mountains	-3970
▁pattern	-3971
▁aer	-3972
▁creation	-3973
gian	-3974
▁sev	-3975
greg	-3976
▁episodes	-3977
sl	-3978
mus	-3979
▁tele	-3980
▁inhab	-3981
▁settlement	-3982
▁scientific	-3983
▁traffic	-3984
▁charl	-3985
cel	-3986
▁covered	-3987
pet	-3988
▁£	-3989
▁golden	-3990
▁grant	-3991
force	-3992
▁shoot	-3993
zy	-3994
▁renamed	-3995
▁memory	-3996
▁contest	-3997
osh	-3998
burgh	-3999
▁table	-4000
▁critical	-4001
▁muslim	-4002
▁virt	-4003
omm	-4004
oul	-4005
▁selected	-4006
▁aim	-4007
▁interact	-4008
▁slow	-4009
pri	-4010
itled	-4011
▁affairs	-4012
▁page	-4013
▁perman	-4014
▁uns	-4015
▁#"	-4016
▁normal	-4017
usion	-4018
▁comedy	-4019
olved	-4020
▁scottish	-4021
▁kent	-4022
▁impact	-4023
acing	-4024
oration	-4025
▁opera	-4026
▁oxford	-4027
▁reduced	-4028
ci	-4029
▁estimated	-4030
▁mu	-4031
px	-4032
yr	-4033
life	-4034
.0/	-4035
▁lives	-4036
vin	-4037
bu	-4038
▁daily	-4039
▁defined	-4040
▁southe	-4041
▁price	-4042
▁champion	-4043
▁reference	-4044
▁treaty	-4045
ibly	-4046
▁script	-4047
▁climate	-4048
▁premier	-4049
reg	-4050
▁hotel	-4051
▁fix	-4052
▁distance	-4053
ione	-4054
▁jeff	-4055
▁sales	-4056
▁roll	-4057
lers	-4058
▁things	-4059
▁susp	-4060
▁garden	-4061
aka	-4062
▁disease	-4063
▁frequently	-4064
▁bol	-4065
▁minim	-4066
▁distribution	-4067
▁recover	-4068
ressed	-4069
▁infantry	-4070
▁swe	-4071
▁planned	-4072
▁damage	-4073
ati	-4074
▁letters	-4075
families	-4076
▁communities	-4077
▁relatively	-4078
▁metrop	-4079
▁split	-4080
▁contain	-4081
▁accepted	-4082
▁giving	-4083
▁initi	-4084
▁facilities	-4085
ón	-4086
▁condition	-4087
onic	-4088
▁bod	-4089
het	-4090
ski	-4091
▁moving	-4092
▁anne	-4093
▁convention	-4094
▁saying	-4095
▁leadership	-4096
▁serious	-4097
rain	-4098
▁sher	-4099
des	-4100
▁simple	-4101
▁mom	-4102
bec	-4103
▁bond	-4104
ador	-4105
any	-4106
mont	-4107
isters	-4108
▁cerem	-4109
▁versus	-4110
▁distingu	-4111
oman	-4112
▁victoria	-4113
▁borough	-4114
▁viet	-4115
▁claims	-4116
▁propos	-4117
▁ohio	-4118
oral	-4119
hr	-4120
▁agreed	-4121
▁comes	-4122
▁supreme	-4123
▁politics	-4124
▁allows	-4125
▁andrew	-4126
state	-4127
▁ga	-4128
▁charge	-4129
▁prin	-4130
▁presence	-4131
▁bed	-4132
aped	-4133
ockey	-4134
▁gram	-4135
hens	-4136
▁combat	-4137
izes	-4138
▁ontar	-4139
rison	-4140
▁opp	-4141
▁ontario	-4142
iy	-4143
ding	-4144
▁declared	-4145
real	-4146
▁efforts	-4147
▁etc	-4148
▁dur	-4149
lines	-4150
▁signal	-4151
▁brook	-4152
portun	-4153
▁ped	-4154
sex	-4155
aging	-4156
▁grew	-4157
▁aband	-4158
▁holy	-4159
▁trail	-4160
▁lew	-4161
▁mas	-4162
▁purs	-4163
▁suggested	-4164
▁sense	-4165
mat	-4166
▁elizabeth	-4167
▁fuel	-4168
▁animals	-4169
▁resulted	-4170
resh	-4171
▁attention	-4172
▁gained	-4173
▁hydro	-4174
▁solo	-4175
▁poland	-4176
▁kil	-4177
▁reject	-4178
▁retired	-4179
▁kong	-4180
▁confir	-4181
▁regions	-4182
▁thir	-4183
▁*"	-4184
gment	-4185
from	-4186
▁cells	-4187
▁fame	-4188
utenant	-4189
▁belong	-4190
▁hispanic	-4191
▁alt	-4192
▁opportun	-4193
▁pp	-4194
▁headquarters	-4195
▁reach	-4196
▁composer	-4197
era	-4198
▁vac	-4199
▁expans	-4200
works	-4201
iring	-4202
ogue	-4203
▁internet	-4204
jan	-4205
▁lady	-4206
▁scored	-4207
▁diam	-4208
▁norm	-4209
▁lot	-4210
▁attend	-4211
▁transform	-4212
▁rear	-4213
▁captured	-4214
cluding	-4215
▁classical	-4216
ocks	-4217
▁trains	-4218
▁examples	-4219
▁slight	-4220
▁advanced	-4221
▁occurred	-4222
▁surrounding	-4223
▁crime	-4224
▁athlet	-4225
▁managed	-4226
▁supply	-4227
vd	-4228
▁tournament	-4229
▁estate	-4230
▁greatest	-4231
ograp	-4232
▁content	-4233
claim	-4234
achus	-4235
▁las	-4236
▁fields	-4237
enge	-4238
▁philipp	-4239
▁cold	-4240
▁matt	-4241
▁basketball	-4242
ologist	-4243
omy	-4244
▁ry	-4245
aly	-4246
▁format	-4247
▁bott	-4248
▁talk	-4249
▁critics	-4250
▁morning	-4251
▁alternative	-4252
▁mort	-4253
▁palace	-4254
oted	-4255
▁heat	-4256
▁pak	-4257
▁occasion	-4258
etts	-4259
▁secondary	-4260
▁pier	-4261
tw	-4262
▁weight	-4263
▁mentioned	-4264
▁(0000–00	-4265
▁completely	-4266
▁suit	-4267
▁print	-4268
law	-4269
▁forward	-4270
▁freedom	-4271
▁hind	-4272
pat	-4273
▁hands	-4274
▁battal	-4275
▁dedicated	-4276
▁safety	-4277
writer	-4278
▁fighting	-4279
▁lear	-4280
▁chemical	-4281
▁encoura	-4282
▁atlantic	-4283
▁programming	-4284
▁vehicle	-4285
▁beyond	-4286
▁sund	-4287
▁allowing	-4288
onia	-4289
▁fiction	-4290
▁unique	-4291
▁conflict	-4292
▁tan	-4293
▁conducted	-4294
▁tay	-4295
oty	-4296
▁revealed	-4297
▁goals	-4298
▁methods	-4299
▁sexual	-4300
▁orth	-4301
ext	-4302
▁entertainment	-4303
▁eg	-4304
▁seasons	-4305
▁wilson	-4306
▁dynasty	-4307
forms	-4308
▁sle	-4309
▁capacity	-4310
▁iran	-4311
▁glass	-4312
▁religion	-4313
▁sciences	-4314
▁temperature	-4315
ented	-4316
▁defeat	-4317
▁purpose	-4318
rence	-4319
▁squadron	-4320
▁demonstr	-4321
amin	-4322
▁convers	-4323
▁toronto	-4324
▁canal	-4325
▁folk	-4326
▁unc	-4327
iced	-4328
▁cook	-4329
2).	-4330
▁background	-4331
ricket	-4332
▁subsequent	-4333
▁job	-4334
▁generation	-4335
zer	-4336
▁risk	-4337
▁seats	-4338
kh	-4339
▁baron	-4340
century	-4341
án	-4342
inois	-4343
,''	-4344
▁respectively	-4345
▁plants	-4346
▁resources	-4347
"),	-4348
vard	-4349
▁suppl	-4350
orter	-4351
▁positive	-4352
▁dim	-4353
▁attacks	-4354
▁expanded	-4355
▁northe	-4356
▁candidate	-4357
▁suffered	-4358
iot	-4359
tery	-4360
▁sin	-4361
▁marine	-4362
▁accompan	-4363
▁portion	-4364
▁chron	-4365
▁spr	-4366
ses	-4367
▁yellow	-4368
▁fully	-4369
inger	-4370
▁necessary	-4371
▁billion	-4372
icks	-4373
▁jazz	-4374
▁ford	-4375
▁technical	-4376
▁formation	-4377
▁capita	-4378
▁nas	-4379
▁kept	-4380
▁felt	-4381
▁latino	-4382
gor	-4383
▁speech	-4384
▁studied	-4385
0)	-4386
▁anton	-4387
ih	-4388
▁presidential	-4389
▁hills	-4390
▁twenty	-4391
▁bure	-4392
inity	-4393
ube	-4394
▁hyp	-4395
▁prote	-4396
▁dro	-4397
▁bron	-4398
▁contrast	-4399
adelph	-4400
sey	-4401
▁pope	-4402
▁powerful	-4403
atures	-4404
▁dor	-4405
▁notes	-4406
chen	-4407
▁berlin	-4408
▁bit	-4409
▁hat	-4410
▁recognized	-4411
▁materials	-4412
inson	-4413
▁joe	-4414
▁drama	-4415
▁centuries	-4416
mo	-4417
▁expected	-4418
▁motion	-4419
▁growing	-4420
fall	-4421
▁rise	-4422
iled	-4423
▁opposed	-4424
▁rein	-4425
▁functions	-4426
▁identified	-4427
▁stor	-4428
▁divers	-4429
▁kir	-4430
▁stephen	-4431
▁fal	-4432
▁philosophy	-4433
▁offers	-4434
▁agency	-4435
▁iraq	-4436
▁matter	-4437
▁apparent	-4438
achusetts	-4439
▁oldest	-4440
aming	-4441
▁projects	-4442
▁votes	-4443
▁hay	-4444
▁windows	-4445
▁compar	-4446
encies	-4447
▁want	-4448
▁paid	-4449
▁ts	-4450
▁moon	-4451
▁column	-4452
▁lieutenant	-4453
▁metropolitan	-4454
▁faith	-4455
ras	-4456
▁elementary	-4457
ounds	-4458
▁seem	-4459
phy	-4460
▁providing	-4461
▁00;	-4462
▁unlike	-4463
▁singles	-4464
▁georgia	-4465
▁orchestra	-4466
▁edge	-4467
▁fat	-4468
▁beaut	-4469
also	-4470
▁connected	-4471
▁doub	-4472
▁comic	-4473
▁crow	-4474
dney	-4475
ali	-4476
gi	-4477
▁effort	-4478
▁frame	-4479
▁vess	-4480
ima	-4481
kes	-4482
▁join	-4483
.0%)	-4484
▁usa	-4485
▁+	-4486
▁vent	-4487
estic	-4488
▁0:	-4489
adelphia	-4490
▁hong	-4491
▁marked	-4492
▁core	-4493
imb	-4494
▁advert	-4495
mes	-4496
▁internal	-4497
▁boys	-4498
▁aspect	-4499
▁resident	-4500
▁vehicles	-4501
▁theme	-4502
▁ign	-4503
ordin	-4504
▁refused	-4505
▁armed	-4506
▁granted	-4507
▁hockey	-4508
▁sab	-4509
▁weapons	-4510
▁alongside	-4511
▁michigan	-4512
▁founder	-4513
▁confeder	-4514
▁titles	-4515
▁reserv	-4516
▁acting	-4517
▁cricket	-4518
▁trial	-4519
").	-4520
▁firm	-4521
▁nap	-4522
▁oak	-4523
▁recomm	-4524
▁intelligence	-4525
ti	-4526
▁reserve	-4527
▁naz	-4528
▁piano	-4529
▁massachusetts	-4530
▁prep	-4531
joy	-4532
▁gives	-4533
▁illinois	-4534
▁something	-4535
▁purchased	-4536
▁younger	-4537
sup	-4538
▁arthur	-4539
▁enemy	-4540
▁sites	-4541
▁tried	-4542
▁jur	-4543
▁newly	-4544
▁vocal	-4545
▁jews	-4546
iques	-4547
▁environmental	-4548
▁mixed	-4549
▁feet	-4550
▁expansion	-4551
▁formerly	-4552
▁equal	-4553
▁architecture	-4554
▁cert	-4555
▁situation	-4556
engers	-4557
▁effective	-4558
▁ken	-4559
▁alliance	-4560
▁paint	-4561
▁adapt	-4562
▁coming	-4563
▁falls	-4564
eland	-4565
▁incorporated	-4566
ila	-4567
gra	-4568
▁publishing	-4569
▁exped	-4570
▁legend	-4571
▁jon	-4572
osis	-4573
kee	-4574
▁meant	-4575
▁max	-4576
▁facility	-4577
▁zone	-4578
▁daniel	-4579
ifying	-4580
▁fans	-4581
▁kings	-4582
▁cambridge	-4583
ographic	-4584
▁acts	-4585
▁dipl	-4586
▁eye	-4587
umber	-4588
▁herit	-4589
▁assistant	-4590
▁figures	-4591
▁philip	-4592
▁transferred	-4593
▁lt	-4594
▁judge	-4595
▁showed	-4596
▁astron	-4597
▁conqu	-4598
▁seek	-4599
▁lu	-4600
ounded	-4601
aya	-4602
inem	-4603
▁dang	-4604
ption	-4605
▁institution	-4606
▁tend	-4607
▁rug	-4608
▁says	-4609
▁organized	-4610
▁mm	-4611
▁sell	-4612
▁flat	-4613
hedral	-4614
▁extensive	-4615
▁serves	-4616
▁learning	-4617
ela	-4618
will	-4619
▁fly	-4620
▁principal	-4621
▁continues	-4622
▁snow	-4623
▁py	-4624
▁floor	-4625
▁nic	-4626
▁0000-00	-4627
▁survey	-4628
▁existing	-4629
',	-4630
rics	-4631
osen	-4632
▁spok	-4633
▁inspired	-4634
▁sud	-4635
▁subs	-4636
▁performing	-4637
place	-4638
ira	-4639
▁pilot	-4640
oh	-4641
cs	-4642
▁consequ	-4643
lar	-4644
▁owner	-4645
▁impl	-4646
▁strugg	-4647
▁derived	-4648
▁sons	-4649
▁rough	-4650
▁rural	-4651
▁nether	-4652
die	-4653
phas	-4654
▁ultim	-4655
▁choice	-4656
oln	-4657
▁application	-4658
▁santa	-4659
▁organizations	-4660
▁advant	-4661
▁solid	-4662
▁receive	-4663
▁freder	-4664
▁supporting	-4665
▁chamber	-4666
aling	-4667
▁rub	-4668
▁sche	-4669
▁sets	-4670
▁sky	-4671
ois	-4672
▁titled	-4673
iat	-4674
▁formal	-4675
▁classic	-4676
▁refers	-4677
▁rivers	-4678
▁weather	-4679
▁heritage	-4680
▁introduction	-4681
▁rid	-4682
▁myth	-4683
oir	-4684
▁kit	-4685
oti	-4686
▁priest	-4687
▁pakistan	-4688
▁animal	-4689
▁engineer	-4690
haps	-4691
▁unknown	-4692
▁(0000,	-4693
▁attempts	-4694
▁attempted	-4695
▁na	-4696
olis	-4697
▁shel	-4698
ception	-4699
pp	-4700
▁engines	-4701
▁planet	-4702
▁admir	-4703
di	-4704
▁liver	-4705
▁flood	-4706
▁han	-4707
▁equival	-4708
bell	-4709
▁else	-4710
▁decre	-4711
▁philadelphia	-4712
ava	-4713
▁restaur	-4714
▁racing	-4715
▁begins	-4716
▁mike	-4717
▁sweden	-4718
western	-4719
▁platform	-4720
▁ron	-4721
▁alph	-4722
zo	-4723
heim	-4724
▁dram	-4725
▁medicine	-4726
▁scul	-4727
▁attrib	-4728
▁influenced	-4729
▁advance	-4730
▁comics	-4731
igen	-4732
▁mole	-4733
▁0-0	-4734
▁americans	-4735
▁som	-4736
▁doll	-4737
▁gree	-4738
▁draw	-4739
▁ok	-4740
▁follows	-4741
ifically	-4742
!!	-4743
▁portray	-4744
ora	-4745
who	-4746
iday	-4747
▁flying	-4748
▁believe	-4749
▁exer	-4750
▁aid	-4751
▁reign	-4752
▁taylor	-4753
dis	-4754
rep	-4755
esc	-4756
▁ways	-4757
▁extrem	-4758
glas	-4759
▁ranked	-4760
▁standards	-4761
▁earned	-4762
▁swedish	-4763
▁scale	-4764
▁*0000:	-4765
▁strip	-4766
erse	-4767
▁representatives	-4768
▁avoid	-4769
▁exclus	-4770
▁reading	-4771
eman	-4772
▁failure	-4773
▁piece	-4774
wart	-4775
▁reports	-4776
inter	-4777
▁junior	-4778
▁positions	-4779
▁showing	-4780
after	-4781
lywood	-4782
▁defence	-4783
▁advoc	-4784
▁trav	-4785
eding	-4786
ads	-4787
▁winner	-4788
▁picture	-4789
hal	-4790
▁kid	-4791
aver	-4792
▁cris	-4793
▁cel	-4794
liest	-4795
▁creating	-4796
▁communist	-4797
▁steve	-4798
▁literary	-4799
cr	-4800
▁actions	-4801
▁pu	-4802
▁rab	-4803
▁girls	-4804
▁classes	-4805
▁horn	-4806
hum	-4807
▁roles	-4808
▁audience	-4809
▁northwest	-4810
▁alf	-4811
asy	-4812
▁ministry	-4813
dy	-4814
▁bes	-4815
▁davis	-4816
▁wheel	-4817
▁phase	-4818
▁entitled	-4819
ading	-4820
gro	-4821
▁sides	-4822
▁acid	-4823
oured	-4824
▁belief	-4825
▁theore	-4826
▁flu	-4827
▁00:00	-4828
▁succeeded	-4829
▁chur	-4830
▁invasion	-4831
gn	-4832
sky	-4833
▁settled	-4834
▁semi	-4835
ulate	-4836
▁ethnic	-4837
▁fant	-4838
ishes	-4839
▁spons	-4840
▁$00,000,	-4841
▁cos	-4842
▁worldwide	-4843
▁select	-4844
▁whit	-4845
▁historian	-4846
▁officials	-4847
itzer	-4848
▁electronic	-4849
▁applications	-4850
▁lewis	-4851
general	-4852
▁bac	-4853
▁resc	-4854
▁starring	-4855
▁prefer	-4856
▁chosen	-4857
▁shut	-4858
▁twice	-4859
▁storm	-4860
▁values	-4861
▁argent	-4862
▁0.00.	-4863
ographer	-4864
▁hart	-4865
▁lies	-4866
▁proceed	-4867
▁crim	-4868
ban	-4869
run	-4870
▁write	-4871
▁wed	-4872
order	-4873
ancing	-4874
▁deput	-4875
▁trees	-4876
incoln	-4877
)''	-4878
▁assigned	-4879
▁goes	-4880
▁poll	-4881
▁ideas	-4882
aine	-4883
▁emphas	-4884
▁toward	-4885
▁unable	-4886
omot	-4887
▁objects	-4888
▁turk	-4889
▁olympic	-4890
▁bands	-4891
▁clar	-4892
▁hosted	-4893
world	-4894
long	-4895
▁achieved	-4896
rec	-4897
▁kel	-4898
▁fine	-4899
▁interior	-4900
▁ultimately	-4901
▁ward	-4902
▁gran	-4903
▁parall	-4904
▁cant	-4905
▁korea	-4906
▁ros	-4907
'';	-4908
aret	-4909
▁cancer	-4910
▁designated	-4911
▁netherlands	-4912
▁*00	-4913
mic	-4914
▁writers	-4915
▁dropped	-4916
▁dry	-4917
▁fear	-4918
▁sculpt	-4919
▁abd	-4920
rome	-4921
▁launch	-4922
vo	-4923
▁stev	-4924
▁connection	-4925
this	-4926
bal	-4927
bourne	-4928
▁narrow	-4929
▁occupied	-4930
▁containing	-4931
▁promoted	-4932
▁wave	-4933
▁device	-4934
▁gate	-4935
/0	-4936
▁gri	-4937
▁lands	-4938
▁administrative	-4939
pton	-4940
▁mig	-4941
uled	-4942
▁sed	-4943
▁existence	-4944
▁pros	-4945
night	-4946
omer	-4947
▁shared	-4948
▁sty	-4949
▁downtown	-4950
cluded	-4951
▁behavior	-4952
▁hour	-4953
▁000–000	-4954
▁chris	-4955
oren	-4956
▁limit	-4957
top	-4958
▁permanent	-4959
onym	-4960
▁theater	-4961
▁resistance	-4962
▁setting	-4963
▁cow	-4964
stream	-4965
▁#00	-4966
▁wealth	-4967
▁actual	-4968
urer	-4969
▁spot	-4970
itors	-4971
▁agent	-4972
▁maximum	-4973
▁demand	-4974
▁prepar	-4975
▁slightly	-4976
▁roads	-4977
roll	-4978
▁publication	-4979
▁guns	-4980
come	-4981
ru	-4982
▁cool	-4983
amm	-4984
ims	-4985
▁corner	-4986
▁plot	-4987
▁churches	-4988
unk	-4989
▁bush	-4990
▁ll	-4991
▁planning	-4992
▁properties	-4993
▁pair	-4994
▁synd	-4995
▁identity	-4996
ricts	-4997
▁ru	-4998
▁nominated	-4999
▁bag	-5000
▁accident	-5001
▁leaves	-5002
▁pione	-5003
iny	-5004
▁dub	-5005
▁strateg	-5006
▁vic	-5007
▁cycl	-5008
▁strength	-5009
▁ray	-5010
▁ka	-5011
▁doct	-5012
▁tank	-5013
▁proved	-5014
▁bann	-5015
iments	-5016
eries	-5017
▁regarded	-5018
astern	-5019
▁factory	-5020
▁carry	-5021
▁tall	-5022
uts	-5023
isms	-5024
▁gil	-5025
track	-5026
▁waters	-5027
athan	-5028
▁perhaps	-5029
▁enjoy	-5030
ami	-5031
▁battalion	-5032
▁0000–00,	-5033
▁typical	-5034
▁programme	-5035
▁copies	-5036
uese	-5037
'':	-5038
ieval	-5039
ropical	-5040
uther	-5041
▁poetry	-5042
▁drums	-5043
ruct	-5044
▁negoti	-5045
▁visited	-5046
▁ages	-5047
▁ak	-5048
▁exact	-5049
▁earliest	-5050
mine	-5051
▁communications	-5052
cal	-5053
▁respond	-5054
▁ancest	-5055
ternal	-5056
▁causes	-5057
▁institutions	-5058
▁driver	-5059
otic	-5060
▁heavily	-5061
▁satell	-5062
rif	-5063
▁merch	-5064
▁passenger	-5065
▁transportation	-5066
▁gain	-5067
▁christmas	-5068
▁lind	-5069
▁cathedral	-5070
▁authorities	-5071
▁argued	-5072
▁cem	-5073
▁eag	-5074
▁performances	-5075
ouri	-5076
odox	-5077
▁lyn	-5078
▁domestic	-5079
pson	-5080
rine	-5081
▁guide	-5082
ée	-5083
▁couple	-5084
▁neighborhood	-5085
amic	-5086
▁plate	-5087
aud	-5088
lav	-5089
count	-5090
▁ny	-5091
prise	-5092
▁inhabit	-5093
▁buried	-5094
ipe	-5095
een	-5096
▁rif	-5097
uls	-5098
hann	-5099
▁shape	-5100
▁straight	-5101
ucky	-5102
▁structures	-5103
ogen	-5104
organ	-5105
weight	-5106
▁marg	-5107
▁quite	-5108
▁decades	-5109
▁expos	-5110
▁detect	-5111
▁multi	-5112
▁brain	-5113
room	-5114
▁carbon	-5115
tim	-5116
▁birds	-5117
▁mist	-5118
▁specifically	-5119
power	-5120
rising	-5121
▁#0	-5122
▁broke	-5123
▁touch	-5124
▁harry	-5125
▁wrestling	-5126
▁constitu	-5127
entially	-5128
▁leon	-5129
▁user	-5130
▁lincoln	-5131
▁ross	-5132
▁occurs	-5133
▁ari	-5134
zech	-5135
▁reasons	-5136
▁pieces	-5137
▁row	-5138
▁sydney	-5139
▁bang	-5140
▁correct	-5141
former	-5142
▁clubs	-5143
agan	-5144
▁convent	-5145
din	-5146
▁douglas	-5147
▁worth	-5148
aki	-5149
rum	-5150
south	-5151
▁vel	-5152
▁boat	-5153
▁retire	-5154
▁wr	-5155
▁attacked	-5156
▁buff	-5157
uv	-5158
ashion	-5159
▁returning	-5160
▁fought	-5161
▁orders	-5162
▁determined	-5163
▁colonial	-5164
▁negative	-5165
▁copy	-5166
chers	-5167
wick	-5168
ho	-5169
alty	-5170
▁senator	-5171
▁synthe	-5172
▁merc	-5173
▁tag	-5174
▁intel	-5175
▁tai	-5176
▁chain	-5177
▁steam	-5178
▁converted	-5179
▁sax	-5180
▁insur	-5181
▁ot	-5182
▁marc	-5183
including	-5184
▁notably	-5185
▁tony	-5186
▁diplom	-5187
▁opin	-5188
▁jesus	-5189
enna	-5190
▁begin	-5191
▁medieval	-5192
equ	-5193
ni	-5194
▁representative	-5195
▁)	-5196
▁descript	-5197
icit	-5198
▁bear	-5199
▁holds	-5200
▁interpret	-5201
ju	-5202
▁0%	-5203
ucing	-5204
▁studios	-5205
▁bot	-5206
▁matches	-5207
▁ones	-5208
▁locomot	-5209
▁controlled	-5210
sis	-5211
▁translation	-5212
urt	-5213
▁barb	-5214
▁possess	-5215
▁easily	-5216
rim	-5217
▁bull	-5218
▁teaching	-5219
omen	-5220
▁howard	-5221
▁gang	-5222
▁facult	-5223
▁entirely	-5224
adow	-5225
▁ore	-5226
▁publisher	-5227
▁techniques	-5228
▁brigade	-5229
▁hair	-5230
unte	-5231
▁onto	-5232
zen	-5233
▁sought	-5234
▁districts	-5235
▁tail	-5236
▁dvd	-5237
▁fict	-5238
▁rival	-5239
▁ton	-5240
▁orient	-5241
▁visual	-5242
▁fan	-5243
point	-5244
▁phen	-5245
▁obtained	-5246
▁maria	-5247
▁universe	-5248
▁gord	-5249
uing	-5250
pol	-5251
▁aqu	-5252
▁evolution	-5253
iversary	-5254
▁southeast	-5255
▁holding	-5256
▁championships	-5257
▁universities	-5258
▁needs	-5259
umin	-5260
▁affili	-5261
▁auth	-5262
'.	-5263
▁circuit	-5264
▁heard	-5265
▁:*	-5266
▁sixth	-5267
nesota	-5268
hu	-5269
▁lov	-5270
but	-5271
▁reduce	-5272
▁0''	-5273
umes	-5274
▁fro	-5275
ighth	-5276
▁ending	-5277
▁opposite	-5278
▁bought	-5279
▁az	-5280
▁killing	-5281
may	-5282
east	-5283
▁portuguese	-5284
▁contained	-5285
angel	-5286
burn	-5287
gency	-5288
▁strike	-5289
▁agricultural	-5290
▁situated	-5291
▁bapt	-5292
▁archae	-5293
▁appearances	-5294
▁expedition	-5295
▁arc	-5296
▁vary	-5297
eed	-5298
iar	-5299
▁depend	-5300
▁sequence	-5301
▁recon	-5302
▁employed	-5303
▁bou	-5304
▁height	-5305
aska	-5306
mel	-5307
▁nothing	-5308
▁mast	-5309
anes	-5310
▁combination	-5311
vis	-5312
▁painting	-5313
▁bureau	-5314
▁ow	-5315
▁calcul	-5316
▁developing	-5317
elve	-5318
▁miller	-5319
▁lect	-5320
aga	-5321
orders	-5322
▁pear	-5323
▁hav	-5324
▁abandoned	-5325
▁documentary	-5326
▁communication	-5327
▁unif	-5328
igation	-5329
▁improved	-5330
▁incident	-5331
▁mah	-5332
ić	-5333
sel	-5334
gas	-5335
▁sie	-5336
▁stores	-5337
▁universal	-5338
▁causing	-5339
▁reaction	-5340
▁regarding	-5341
▁advis	-5342
▁audio	-5343
▁kr	-5344
una	-5345
▁anniversary	-5346
▁hits	-5347
▁catal	-5348
▁importance	-5349
▁humans	-5350
▁budget	-5351
▁grade	-5352
inder	-5353
▁deploy	-5354
▁banks	-5355
uting	-5356
fully	-5357
▁ends	-5358
▁approved	-5359
▁substant	-5360
▁rugby	-5361
pool	-5362
▁tu	-5363
▁hu	-5364
▁neut	-5365
orph	-5366
▁expressed	-5367
▁brad	-5368
box	-5369
▁maintained	-5370
▁pup	-5371
apore	-5372
▁fab	-5373
rock	-5374
▁penins	-5375
▁accur	-5376
▁merged	-5377
non	-5378
▁cycle	-5379
▁losing	-5380
grad	-5381
dale	-5382
▁sust	-5383
▁cable	-5384
▁possibly	-5385
she	-5386
grees	-5387
▁sr	-5388
▁volunte	-5389
▁calls	-5390
▁0)	-5391
clos	-5392
▁hug	-5393
▁minnesota	-5394
▁closely	-5395
iling	-5396
▁withdra	-5397
▁formula	-5398
▁criminal	-5399
▁crisis	-5400
▁shall	-5401
▁cabinet	-5402
▁rober	-5403
▁landing	-5404
isf	-5405
trans	-5406
▁circle	-5407
▁consec	-5408
amilton	-5409
▁broadcasting	-5410
▁veter	-5411
▁bottom	-5412
▁czech	-5413
▁analy	-5414
gement	-5415
▁cinem	-5416
ilation	-5417
▁cad	-5418
▁hope	-5419
▁escape	-5420
bill	-5421
▁moment	-5422
▁maintain	-5423
poses	-5424
▁ker	-5425
▁equivalent	-5426
▁degrees	-5427
▁terminal	-5428
oster	-5429
▁factor	-5430
▁vietnam	-5431
▁images	-5432
▁patri	-5433
illery	-5434
▁shore	-5435
bey	-5436
▁proced	-5437
▁observed	-5438
▁fresh	-5439
▁routes	-5440
anth	-5441
ori	-5442
▁mexican	-5443
▁speak	-5444
appe	-5445
hard	-5446
▁salt	-5447
▁why	-5448
▁dream	-5449
▁affect	-5450
▁korean	-5451
▁streets	-5452
▁gib	-5453
etery	-5454
▁extension	-5455
▁mobile	-5456
acent	-5457
▁walter	-5458
▁instance	-5459
▁courts	-5460
▁ruled	-5461
ensions	-5462
▁alleged	-5463
▁manchester	-5464
▁chapter	-5465
▁offices	-5466
▁doing	-5467
▁educational	-5468
iful	-5469
▁simon	-5470
▁homes	-5471
▁elimin	-5472
▁advantage	-5473
▁journalist	-5474
▁hors	-5475
▁disney	-5476
▁provincial	-5477
▁contributed	-5478
▁aired	-5479
lyn	-5480
▁task	-5481
▁eyes	-5482
ogy	-5483
▁standing	-5484
▁repeated	-5485
▁difference	-5486
▁rhy	-5487
▁try	-5488
▁views	-5489
▁fixed	-5490
▁cemetery	-5491
▁allen	-5492
pres	-5493
cow	-5494
▁twelve	-5495
▁establishment	-5496
▁missouri	-5497
▁occas	-5498
▁"''	-5499
▁cdp	-5500
▁lane	-5501
▁orange	-5502
▁nich	-5503
▁austria	-5504
net	-5505
▁liqu	-5506
▁fighter	-5507
▁mi	-5508
▁fashion	-5509
zz	-5510
olished	-5511
father	-5512
▁orthodox	-5513
▁operate	-5514
▁producing	-5515
▁confirmed	-5516
▁knight	-5517
▁monarch	-5518
▁pron	-5519
▁successfully	-5520
fir	-5521
▁é	-5522
▁inhabitants	-5523
such	-5524
▁gallery	-5525
▁terror	-5526
▁hollywood	-5527
▁locations	-5528
▁::	-5529
▁clark	-5530
▁partner	-5531
rix	-5532
▁gene	-5533
▁musician	-5534
ben	-5535
▁popularity	-5536
racy	-5537
▁parallel	-5538
ova	-5539
▁northeast	-5540
▁cape	-5541
▁mol	-5542
▁kl	-5543
esh	-5544
▁output	-5545
eller	-5546
eration	-5547
▁depending	-5548
▁frederick	-5549
▁entry	-5550
▁bos	-5551
▁dc	-5552
▁sale	-5553
▁inters	-5554
▁describes	-5555
▁bright	-5556
▁relative	-5557
black	-5558
▁devices	-5559
▁plane	-5560
pre	-5561
▁submar	-5562
▁none	-5563
▁princess	-5564
▁raf	-5565
▁laid	-5566
▁users	-5567
▁treas	-5568
▁defend	-5569
▁lam	-5570
yard	-5571
usal	-5572
issance	-5573
rons	-5574
▁bowl	-5575
uses	-5576
▁colony	-5577
▁definition	-5578
▁statement	-5579
▁articles	-5580
▁partnership	-5581
▁experien	-5582
▁ment	-5583
▁goods	-5584
▁obl	-5585
osa	-5586
▁extremely	-5587
▁brian	-5588
▁walls	-5589
▁bodies	-5590
aria	-5591
▁persons	-5592
▁briefly	-5593
ito	-5594
▁(0)	-5595
iary	-5596
▁taught	-5597
▁cryst	-5598
▁portra	-5599
▁lyrics	-5600
erts	-5601
ager	-5602
▁caval	-5603
▁pav	-5604
▁voted	-5605
▁revol	-5606
▁passing	-5607
▁circum	-5608
▁founding	-5609
cious	-5610
oto	-5611
▁install	-5612
▁resear	-5613
▁airlines	-5614
▁door	-5615
▁gay	-5616
▁factors	-5617
▁thousands	-5618
▁string	-5619
▁dialect	-5620
▁adap	-5621
▁cha	-5622
▁quebec	-5623
iscons	-5624
▁translated	-5625
▁consisting	-5626
▁grey	-5627
▁category	-5628
▁bh	-5629
▁instruments	-5630
▁differences	-5631
▁scenes	-5632
▁magic	-5633
▁federation	-5634
▁soul	-5635
utation	-5636
edia	-5637
▁entrance	-5638
▁hamilton	-5639
low	-5640
cop	-5641
▁singapore	-5642
rate	-5643
▁tas	-5644
▁reviews	-5645
▁dies	-5646
antic	-5647
▁franch	-5648
▁hou	-5649
pir	-5650
▁agriculture	-5651
▁fictional	-5652
▁plus	-5653
ef	-5654
isconsin	-5655
olas	-5656
▁recognition	-5657
▁southwest	-5658
▁otherwise	-5659
▁allied	-5660
▁counties	-5661
▁pictures	-5662
▁kansas	-5663
▁reality	-5664
▁ul	-5665
▁vert	-5666
▁charter	-5667
▁underground	-5668
▁designs	-5669
▁looking	-5670
pop	-5671
▁shell	-5672
iner	-5673
▁sunday	-5674
▁uncle	-5675
▁alco	-5676
▁khan	-5677
lets	-5678
▁rod	-5679
fran	-5680
icial	-5681
▁atm	-5682
▁laure	-5683
▁clean	-5684
▁loy	-5685
present	-5686
▁solution	-5687
ieties	-5688
iac	-5689
▁items	-5690
while	-5691
▁villages	-5692
▁commissioned	-5693
▁deputy	-5694
aug	-5695
▁swim	-5696
▁thor	-5697
▁jam	-5698
▁greg	-5699
▁costs	-5700
▁musicians	-5701
▁00-00	-5702
▁broken	-5703
▁wolf	-5704
▁dat	-5705
▁appoint	-5706
▁peninsula	-5707
▁ali	-5708
ceived	-5709
▁witness	-5710
ão	-5711
▁adam	-5712
going	-5713
▁faculty	-5714
▁recre	-5715
▁greece	-5716
rele	-5717
▁passengers	-5718
▁consisted	-5719
▁jacob	-5720
▁appropri	-5721
vant	-5722
wal	-5723
wealth	-5724
▁ko	-5725
othes	-5726
▁trip	-5727
icate	-5728
▁receiving	-5729
▁(0000-0000)	-5730
fr	-5731
▁brid	-5732
▁challenge	-5733
▁norway	-5734
anna	-5735
▁requires	-5736
▁fred	-5737
ender	-5738
wall	-5739
▁candidates	-5740
eld	-5741
inth	-5742
▁cass	-5743
▁draft	-5744
naissance	-5745
▁technique	-5746
agu	-5747
▁colorado	-5748
▁trying	-5749
▁grounds	-5750
▁cards	-5751
▁mode	-5752
▁blues	-5753
▁attor	-5754
▁sid	-5755
▁context	-5756
▁habit	-5757
▁significantly	-5758
mill	-5759
elect	-5760
▁consult	-5761
▁violence	-5762
eria	-5763
mers	-5764
▁operates	-5765
▁medium	-5766
▁frequency	-5767
▁artillery	-5768
tor	-5769
▁patrol	-5770
▁participated	-5771
▁anderson	-5772
▁physics	-5773
icts	-5774
▁kim	-5775
▁pray	-5776
dp	-5777
▁purposes	-5778
▁drink	-5779
vent	-5780
▁bart	-5781
rat	-5782
▁credit	-5783
▁queens	-5784
cat	-5785
▁alan	-5786
▁tact	-5787
▁innov	-5788
▁decade	-5789
▁legislative	-5790
iang	-5791
▁discovery	-5792
▁chapel	-5793
▁skin	-5794
isa	-5795
▁000-000	-5796
mi	-5797
▁resemb	-5798
▁seems	-5799
▁nickn	-5800
▁graduate	-5801
iants	-5802
alo	-5803
▁serb	-5804
you	-5805
▁ther	-5806
▁patients	-5807
rell	-5808
▁brun	-5809
▁mp	-5810
▁unus	-5811
▁improve	-5812
▁jos	-5813
▁manufacturing	-5814
▁favour	-5815
▁rig	-5816
▁arrested	-5817
▁affected	-5818
▁il	-5819
oud	-5820
▁moore	-5821
▁novels	-5822
▁severe	-5823
▁adjacent	-5824
▁ceremony	-5825
▁samuel	-5826
▁ille	-5827
▁covers	-5828
▁monument	-5829
▁dates	-5830
▁territories	-5831
▁purchase	-5832
ologies	-5833
▁funds	-5834
▁weekly	-5835
▁fu	-5836
▁benef	-5837
erto	-5838
lock	-5839
gate	-5840
▁genus	-5841
ares	-5842
stit	-5843
▁construct	-5844
▁sector	-5845
ocol	-5846
▁nam	-5847
▁junction	-5848
best	-5849
▁pir	-5850
apse	-5851
▁recip	-5852
mid	-5853
▁subsid	-5854
▁installed	-5855
ür	-5856
00,	-5857
▁gordon	-5858
▁personnel	-5859
▁scholar	-5860
▁mississ	-5861
▁vision	-5862
▁investigation	-5863
tz	-5864
oking	-5865
▁mans	-5866
▁tren	-5867
ippi	-5868
▁sections	-5869
▁inner	-5870
▁rejected	-5871
▁fried	-5872
▁gender	-5873
etime	-5874
lie	-5875
▁rud	-5876
▁registered	-5877
pal	-5878
▁increasingly	-5879
▁explos	-5880
agen	-5881
▁asc	-5882
▁satellite	-5883
▁vs	-5884
▁occasionally	-5885
▁fisher	-5886
▁lun	-5887
▁aviation	-5888
▁wisconsin	-5889
▁fo	-5890
▁hans	-5891
div	-5892
phone	-5893
▁passes	-5894
▁hell	-5895
borough	-5896
▁vii	-5897
▁upd	-5898
master	-5899
▁golf	-5900
icide	-5901
▁(000.0/	-5902
▁myst	-5903
rete	-5904
▁hang	-5905
▁bath	-5906
how	-5907
ivals	-5908
▁hawai	-5909
▁transition	-5910
ache	-5911
▁gulf	-5912
▁documents	-5913
▁tells	-5914
chang	-5915
▁imag	-5916
▁really	-5917
▁parliamentary	-5918
▁components	-5919
▁symph	-5920
ords	-5921
▁rates	-5922
▁authors	-5923
aza	-5924
▁rebu	-5925
range	-5926
idden	-5927
▁colonel	-5928
▁mine	-5929
level	-5930
▁assass	-5931
▁ah	-5932
▁pure	-5933
▁transit	-5934
orge	-5935
▁whereas	-5936
▁atmosp	-5937
aph	-5938
ushed	-5939
▁residence	-5940
▁commonwealth	-5941
urday	-5942
inner	-5943
▁mouth	-5944
▁phr	-5945
vol	-5946
▁flo	-5947
▁attached	-5948
▁check	-5949
▁wins	-5950
▁isol	-5951
commun	-5952
▁battles	-5953
▁islamic	-5954
aints	-5955
▁injury	-5956
eley	-5957
cho	-5958
▁apple	-5959
▁distinguished	-5960
hold	-5961
ilit	-5962
outs	-5963
owned	-5964
▁painter	-5965
▁recordings	-5966
▁param	-5967
▁kennedy	-5968
▁weak	-5969
▁perfect	-5970
related	-5971
high	-5972
▁depos	-5973
▁absor	-5974
▁truth	-5975
▁understanding	-5976
▁employees	-5977
▁emot	-5978
bat	-5979
aust	-5980
▁gab	-5981
▁somewhat	-5982
▁mathematics	-5983
bus	-5984
vest	-5985
▁ern	-5986
▁starred	-5987
▁modified	-5988
▁debate	-5989
▁dick	-5990
▁lawrence	-5991
akh	-5992
▁funding	-5993
▁normally	-5994
▁abc	-5995
ghan	-5996
▁leads	-5997
fire	-5998
uits	-5999
pective	-6000
▁tick	-6001
roit	-6002
ocracy	-6003
▁composition	-6004
▁graduated	-6005
▁kal	-6006
jun	-6007
▁patrick	-6008
▁duty	-6009
enses	-6010
▁roger	-6011
▁tennes	-6012
▁poem	-6013
▁thing	-6014
▁rum	-6015
▁surg	-6016
▁selection	-6017
las	-6018
ategy	-6019
▁manner	-6020
north	-6021
▁export	-6022
▁focused	-6023
soft	-6024
owa	-6025
friend	-6026
▁wy	-6027
▁juris	-6028
▁nest	-6029
▁policies	-6030
▁cot	-6031
▁save	-6032
▁stret	-6033
▁superv	-6034
hou	-6035
▁capture	-6036
▁lakes	-6037
▁grass	-6038
▁pin	-6039
ika	-6040
called	-6041
▁delay	-6042
action	-6043
▁landsc	-6044
▁mall	-6045
▁message	-6046
▁stands	-6047
▁interests	-6048
poss	-6049
▁jane	-6050
▁drawn	-6051
▁buck	-6052
sal	-6053
▁commem	-6054
▁scheduled	-6055
▁boundary	-6056
▁watch	-6057
pes	-6058
▁tennessee	-6059
▁wire	-6060
▁winds	-6061
apes	-6062
▁opportunity	-6063
▁emergency	-6064
iva	-6065
▁parks	-6066
▁spiritual	-6067
▁superior	-6068
▁metro	-6069
▁tests	-6070
phe	-6071
▁lith	-6072
▁weapon	-6073
▁refuge	-6074
▁veget	-6075
▁lanc	-6076
▁ltd	-6077
▁ale	-6078
▁assess	-6079
▁testing	-6080
▁maryland	-6081
▁olympics	-6082
▁dol	-6083
▁distributed	-6084
▁industries	-6085
▁driving	-6086
press	-6087
▁exception	-6088
▁reaching	-6089
ublin	-6090
▁indiana	-6091
▁capable	-6092
▁scheme	-6093
▁solar	-6094
rator	-6095
▁amend	-6096
▁rol	-6097
▁coalition	-6098
▁hunting	-6099
dam	-6100
▁photograph	-6101
cor	-6102
▁guitarist	-6103
▁revolutionary	-6104
▁expand	-6105
▁retail	-6106
body	-6107
▁deleg	-6108
atically	-6109
▁strategy	-6110
▁!!	-6111
▁evening	-6112
▁additionally	-6113
▁finish	-6114
rose	-6115
mouth	-6116
▁criticism	-6117
▁dal	-6118
▁eat	-6119
▁tropical	-6120
▁herself	-6121
▁coastal	-6122
elle	-6123
▁separated	-6124
ré	-6125
ocated	-6126
▁coordin	-6127
▁details	-6128
▁calling	-6129
wegian	-6130
▁pool	-6131
▁diet	-6132
▁resigned	-6133
▁investment	-6134
▁suggests	-6135
▁descend	-6136
clusion	-6137
▁chance	-6138
wich	-6139
▁philippines	-6140
that	-6141
▁assault	-6142
▁considerable	-6143
pie	-6144
▁clay	-6145
oven	-6146
▁skills	-6147
▁mes	-6148
▁feed	-6149
▁singing	-6150
hand	-6151
▁carrier	-6152
▁bronze	-6153
know	-6154
song	-6155
cur	-6156
oyd	-6157
▁socialist	-6158
▁representing	-6159
▁preced	-6160
bishop	-6161
▁wine	-6162
▁harris	-6163
▁traditionally	-6164
▁delivered	-6165
▁prohib	-6166
rant	-6167
▁00000	-6168
▁aware	-6169
▁nfl	-6170
inction	-6171
▁markets	-6172
cons	-6173
▁bib	-6174
▁bruce	-6175
▁immigr	-6176
▁divisions	-6177
uous	-6178
▁promote	-6179
▁lang	-6180
icien	-6181
▁fishing	-6182
▁kat	-6183
▁ark	-6184
ordan	-6185
!''	-6186
▁expression	-6187
▁crossing	-6188
▁fill	-6189
enh	-6190
▁anch	-6191
eton	-6192
▁arena	-6193
▁elder	-6194
▁tow	-6195
▁successor	-6196
▁buy	-6197
▁external	-6198
▁pig	-6199
▁000-	-6200
united	-6201
▁invent	-6202
▁influential	-6203
▁processes	-6204
▁transmission	-6205
▁retained	-6206
▁selling	-6207
▁zero	-6208
gue	-6209
hus	-6210
ographical	-6211
▁sleep	-6212
▁spoken	-6213
▁scar	-6214
▁ip	-6215
▁ottoman	-6216
▁franklin	-6217
▁anthony	-6218
▁drew	-6219
▁simpl	-6220
▁assumed	-6221
▁cloth	-6222
▁involving	-6223
ifications	-6224
icians	-6225
▁describe	-6226
▁visitors	-6227
▁roberts	-6228
▁useful	-6229
▁lob	-6230
claimed	-6231
▁seventh	-6232
fare	-6233
inian	-6234
amental	-6235
▁pages	-6236
national	-6237
▁hyper	-6238
▁teen	-6239
uster	-6240
▁lad	-6241
▁gear	-6242
▁aspects	-6243
▁cm	-6244
▁determine	-6245
▁desert	-6246
▁survived	-6247
▁decor	-6248
▁moscow	-6249
▁roughly	-6250
▁reputation	-6251
▁visible	-6252
▁proport	-6253
▁retirement	-6254
▁00)	-6255
▁safe	-6256
▁mining	-6257
▁restored	-6258
▁businesses	-6259
▁membership	-6260
▁faced	-6261
▁attorney	-6262
▁warri	-6263
eless	-6264
▁credited	-6265
lah	-6266
oles	-6267
▁cul	-6268
▁concluded	-6269
▁palest	-6270
term	-6271
antly	-6272
▁util	-6273
▁chose	-6274
▁melbourne	-6275
aked	-6276
▁pric	-6277
aux	-6278
▁sufficient	-6279
first	-6280
▁legislation	-6281
▁tunnel	-6282
="	-6283
▁pip	-6284
▁wol	-6285
▁canc	-6286
▁rit	-6287
▁soil	-6288
▁bom	-6289
▁manus	-6290
▁switch	-6291
▁diamond	-6292
▁ridge	-6293
▁harm	-6294
▁storage	-6295
▁decline	-6296
▁edited	-6297
▁actors	-6298
▁yards	-6299
▁accused	-6300
render	-6301
▁carrying	-6302
▁mississippi	-6303
▁nel	-6304
▁cbs	-6305
oen	-6306
▁gardens	-6307
white	-6308
▁juan	-6309
▁russell	-6310
▁adams	-6311
▁gi	-6312
iders	-6313
▁experienced	-6314
''-	-6315
two	-6316
▁sugar	-6317
▁indones	-6318
▁learned	-6319
▁networks	-6320
▁collected	-6321
▁johann	-6322
istol	-6323
▁lev	-6324
▁colour	-6325
▁instruct	-6326
▁greatly	-6327
▁responsibility	-6328
▁accounts	-6329
cha	-6330
▁cod	-6331
raine	-6332
gun	-6333
▁rhyth	-6334
▁hurric	-6335
▁electrical	-6336
▁poems	-6337
▁tribes	-6338
▁si	-6339
▁charges	-6340
▁diego	-6341
▁publications	-6342
▁upgr	-6343
▁engaged	-6344
▁controversy	-6345
▁principle	-6346
▁damaged	-6347
▁charged	-6348
uccess	-6349
▁wides	-6350
istical	-6351
▁cavalry	-6352
▁inher	-6353
onian	-6354
▁eric	-6355
▁session	-6356
▁wick	-6357
uma	-6358
▁stating	-6359
▁fm	-6360
asts	-6361
hammad	-6362
origin	-6363
▁option	-6364
▁exhibition	-6365
eline	-6366
▁measures	-6367
▁excell	-6368
▁ere	-6369
▁coc	-6370
tes	-6371
▁norman	-6372
▁regularly	-6373
▁$000,000	-6374
▁throne	-6375
▁rebell	-6376
▁dod	-6377
▁journey	-6378
▁progressive	-6379
▁conservation	-6380
super	-6381
▁accompanied	-6382
▁denmark	-6383
▁guy	-6384
rapy	-6385
▁scand	-6386
itzerland	-6387
▁rice	-6388
▁arrival	-6389
▁supposed	-6390
▁questions	-6391
▁pel	-6392
▁bible	-6393
▁accommod	-6394
alf	-6395
ovak	-6396
omic	-6397
▁index	-6398
▁matthe	-6399
endar	-6400
.0000	-6401
▁dismiss	-6402
▁restrict	-6403
vements	-6404
▁opinion	-6405
▁‘	-6406
▁hud	-6407
▁divor	-6408
▁''(	-6409
▁appeal	-6410
▁puerto	-6411
▁harbor	-6412
▁subjects	-6413
itt	-6414
▁intellect	-6415
▁broadway	-6416
▁bid	-6417
▁adapted	-6418
pur	-6419
▁om	-6420
▁dave	-6421
iley	-6422
▁sad	-6423
▁monaster	-6424
resents	-6425
▁provinces	-6426
▁alfred	-6427
cular	-6428
▁hired	-6429
▁prepared	-6430
▁animated	-6431
▁resolution	-6432
▁aged	-6433
amps	-6434
▁encoun	-6435
▁controversial	-6436
▁neither	-6437
▁productions	-6438
▁replacement	-6439
lan	-6440
ista	-6441
nov	-6442
▁massive	-6443
▁movements	-6444
▁bah	-6445
▁effectively	-6446
▁requirements	-6447
▁detroit	-6448
▁promotion	-6449
▁bun	-6450
▁papers	-6451
▁fired	-6452
inations	-6453
▁belg	-6454
▁similarly	-6455
gorith	-6456
▁alexand	-6457
▁hub	-6458
▁outstanding	-6459
▁extreme	-6460
▁strongly	-6461
▁ric	-6462
chi	-6463
▁ss	-6464
▁economics	-6465
▁norwegian	-6466
▁easy	-6467
▁heads	-6468
▁reconstr	-6469
ante	-6470
▁sult	-6471
▁practices	-6472
▁biggest	-6473
▁wet	-6474
▁roof	-6475
▁turkish	-6476
▁backing	-6477
▁represents	-6478
lem	-6479
▁constitutional	-6480
▁camera	-6481
▁historically	-6482
▁nbc	-6483
▁lock	-6484
▁duties	-6485
▁surf	-6486
▁organisation	-6487
▁diagn	-6488
uration	-6489
▁pc	-6490
ounced	-6491
door	-6492
▁ku	-6493
▁exists	-6494
▁uss	-6495
ardo	-6496
▁houston	-6497
▁thick	-6498
▁salv	-6499
▁depression	-6500
▁admiral	-6501
▁portugal	-6502
▁rapidly	-6503
▁phill	-6504
▁sig	-6505
rage	-6506
▁ahead	-6507
izon	-6508
▁manuscript	-6509
▁statue	-6510
▁springs	-6511
▁algorith	-6512
▁benefit	-6513
▁resign	-6514
▁fantasy	-6515
pers	-6516
▁stewart	-6517
iga	-6518
▁manif	-6519
▁mounted	-6520
▁sort	-6521
nie	-6522
▁sor	-6523
ruction	-6524
▁soccer	-6525
▁tang	-6526
▁principles	-6527
▁ratio	-6528
▁aw	-6529
▁assistance	-6530
▁franchise	-6531
▁haz	-6532
▁osc	-6533
▁radical	-6534
▁linked	-6535
ucks	-6536
▁finds	-6537
▁hence	-6538
▁gent	-6539
▁evil	-6540
▁baby	-6541
▁laboratory	-6542
▁declined	-6543
▁afghan	-6544
sim	-6545
ikh	-6546
▁wings	-6547
▁achieve	-6548
oes	-6549
▁continental	-6550
▁turkey	-6551
▁abb	-6552
ctic	-6553
free	-6554
▁committed	-6555
▁lingu	-6556
▁margin	-6557
▁dean	-6558
▁dna	-6559
▁louisiana	-6560
▁logo	-6561
▁bry	-6562
▁switzerland	-6563
▁grav	-6564
▁ago	-6565
▁lod	-6566
▁scoring	-6567
bound	-6568
▁(0000–00)	-6569
foot	-6570
▁lux	-6571
▁fruit	-6572
▁shield	-6573
▁welsh	-6574
boards	-6575
▁playoff	-6576
▁relief	-6577
▁colleges	-6578
icut	-6579
▁jet	-6580
▁passage	-6581
raction	-6582
▁thousand	-6583
▁mental	-6584
▁neighbour	-6585
▁plain	-6586
▁dj	-6587
▁getting	-6588
gments	-6589
▁stanley	-6590
essions	-6591
ello	-6592
▁interv	-6593
▁cous	-6594
▁trading	-6595
▁classification	-6596
fast	-6597
▁croat	-6598
▁commemor	-6599
▁lap	-6600
cted	-6601
▁consecutive	-6602
▁exerc	-6603
▁adding	-6604
▁settlers	-6605
ders	-6606
otype	-6607
▁owners	-6608
bb	-6609
unc	-6610
▁wright	-6611
▁montreal	-6612
igenous	-6613
▁swiss	-6614
▁mack	-6615
▁criticized	-6616
▁representation	-6617
▁stages	-6618
▁soldier	-6619
▁(0,000	-6620
▁oregon	-6621
▁dublin	-6622
▁eval	-6623
▁bour	-6624
ture	-6625
▁remember	-6626
▁celebrated	-6627
▁mechanical	-6628
▁''"	-6629
▁movies	-6630
▁ans	-6631
lad	-6632
break	-6633
bird	-6634
idae	-6635
▁stro	-6636
▁ambass	-6637
oked	-6638
▁huge	-6639
▁pad	-6640
rations	-6641
▁dress	-6642
▁lion	-6643
▁nazi	-6644
boy	-6645
▁arn	-6646
▁jurisd	-6647
▁ele	-6648
/0000	-6649
▁biography	-6650
▁ion	-6651
▁destruction	-6652
▁processing	-6653
▁ay	-6654
sur	-6655
▁domain	-6656
pread	-6657
▁courses	-6658
cription	-6659
▁finance	-6660
coming	-6661
▁changing	-6662
eing	-6663
▁renew	-6664
sea	-6665
▁benn	-6666
▁didn	-6667
ui	-6668
itable	-6669
▁lawyer	-6670
tenance	-6671
▁alcohol	-6672
▁legislature	-6673
▁electoral	-6674
▁auton	-6675
spec	-6676
imens	-6677
▁surrender	-6678
▁expect	-6679
▁formally	-6680
▁christopher	-6681
▁philosopher	-6682
▁twin	-6683
▁campbell	-6684
rises	-6685
▁soph	-6686
▁kentucky	-6687
▁kev	-6688
▁residential	-6689
eign	-6690
▁stopped	-6691
kyo	-6692
▁missile	-6693
▁ensure	-6694
▁margaret	-6695
▁rib	-6696
hop	-6697
▁concerns	-6698
issue	-6699
▁tennis	-6700
erate	-6701
▁curt	-6702
▁seconds	-6703
▁stream	-6704
▁rout	-6705
▁coff	-6706
nas	-6707
oust	-6708
iciency	-6709
▁gray	-6710
▁continuing	-6711
▁donald	-6712
dd	-6713
▁outer	-6714
▁vast	-6715
▁austrian	-6716
▁curren	-6717
▁widespread	-6718
abama	-6719
▁finn	-6720
▁mars	-6721
▁invited	-6722
dem	-6723
▁governments	-6724
ateur	-6725
▁crash	-6726
▁input	-6727
leg	-6728
▁anything	-6729
";	-6730
isted	-6731
▁protected	-6732
▁tab	-6733
▁gather	-6734
▁longest	-6735
▁harvard	-6736
▁jordan	-6737
four	-6738
pm	-6739
eenth	-6740
brew	-6741
▁liquid	-6742
lahoma	-6743
▁forming	-6744
ranean	-6745
thro	-6746
▁tools	-6747
▁machines	-6748
▁extent	-6749
▁adaptation	-6750
▁gradually	-6751
sub	-6752
▁supporters	-6753
iami	-6754
▁nik	-6755
veland	-6756
▁disappe	-6757
brit	-6758
▁ownership	-6759
▁jay	-6760
san	-6761
▁maintenance	-6762
▁roots	-6763
▁honorary	-6764
▁printed	-6765
▁filled	-6766
▁malays	-6767
▁occupation	-6768
▁beautiful	-6769
christ	-6770
▁taiwan	-6771
▁clim	-6772
agues	-6773
▁chanc	-6774
▁minimum	-6775
▁headed	-6776
▁vect	-6777
▁protein	-6778
▁thin	-6779
▁guid	-6780
▁clock	-6781
▁portrayed	-6782
▁accompl	-6783
olds	-6784
▁mong	-6785
▁unsuccess	-6786
▁dual	-6787
▁danish	-6788
atherine	-6789
▁existed	-6790
▁random	-6791
▁apparently	-6792
▁component	-6793
just	-6794
▁tribe	-6795
▁contributions	-6796
▁hear	-6797
▁mail	-6798
usalem	-6799
▁indigenous	-6800
▁experimental	-6801
dan	-6802
▁giant	-6803
▁pic	-6804
▁insurance	-6805
zona	-6806
du	-6807
▁morris	-6808
▁uniform	-6809
▁honour	-6810
▁00:	-6811
▁explained	-6812
kshire	-6813
▁persian	-6814
▁drag	-6815
▁morgan	-6816
ologists	-6817
▁rescue	-6818
▁stood	-6819
▁walker	-6820
city	-6821
▁hip	-6822
▁incom	-6823
▁sang	-6824
▁dating	-6825
▁wes	-6826
▁alleg	-6827
▁strategic	-6828
▁israeli	-6829
▁offering	-6830
▁afterwards	-6831
▁allies	-6832
.”	-6833
ded	-6834
▁painted	-6835
▁caught	-6836
▁hosts	-6837
▁(00.0%)	-6838
later	-6839
▁sultan	-6840
allas	-6841
▁speaking	-6842
▁depth	-6843
▁prisoners	-6844
▁optim	-6845
▁excess	-6846
▁peop	-6847
theless	-6848
▁abbey	-6849
▁integrated	-6850
▁armen	-6851
▁populations	-6852
▁returns	-6853
▁hundreds	-6854
▁styles	-6855
▁prompt	-6856
▁mills	-6857
▁strict	-6858
ailed	-6859
▁remark	-6860
▁cash	-6861
ashed	-6862
▁inaug	-6863
▁tokyo	-6864
▁viewed	-6865
▁scientists	-6866
▁carter	-6867
hill	-6868
▁sover	-6869
▁cher	-6870
▁texts	-6871
▁window	-6872
ía	-6873
seud	-6874
season	-6875
▁stress	-6876
intend	-6877
ensed	-6878
▁indicate	-6879
▁coat	-6880
irt	-6881
▁nevertheless	-6882
▁calendar	-6883
▁profession	-6884
▁sovereign	-6885
contin	-6886
▁lem	-6887
icop	-6888
apers	-6889
obi	-6890
▁pruss	-6891
▁wrong	-6892
▁vow	-6893
py	-6894
aware	-6895
▁ideal	-6896
▁surviving	-6897
mm	-6898
▁grown	-6899
▁periods	-6900
▁hamp	-6901
load	-6902
▁thirty	-6903
.000	-6904
▁arist	-6905
orus	-6906
▁adopt	-6907
org	-6908
grand	-6909
olid	-6910
oct	-6911
▁rising	-6912
▁centers	-6913
▁trained	-6914
oslav	-6915
var	-6916
▁orig	-6917
▁limits	-6918
▁pas	-6919
▁peoples	-6920
▁secure	-6921
▁flights	-6922
died	-6923
antine	-6924
haw	-6925
▁nelson	-6926
▁warm	-6927
using	-6928
ez	-6929
phil	-6930
chel	-6931
▁comed	-6932
▁arizona	-6933
▁statistical	-6934
▁drawing	-6935
▁footballer	-6936
▁airline	-6937
▁delta	-6938
hered	-6939
▁finding	-6940
▁understand	-6941
ules	-6942
▁wounded	-6943
donald	-6944
?"	-6945
▁germans	-6946
green	-6947
▁vul	-6948
▁preserv	-6949
▁root	-6950
udes	-6951
▁satisf	-6952
▁cov	-6953
▁soundtrack	-6954
▁nit	-6955
▁marshall	-6956
rus	-6957
▁mini	-6958
oli	-6959
▁vessels	-6960
▁connecticut	-6961
▁description	-6962
▁shif	-6963
attan	-6964
▁teach	-6965
▁eu	-6966
▁hungary	-6967
▁signs	-6968
▁trig	-6969
▁linear	-6970
▁prix	-6971
▁classified	-6972
▁gam	-6973
chell	-6974
publ	-6975
▁spin	-6976
iah	-6977
▁basin	-6978
▁personality	-6979
▁links	-6980
▁karl	-6981
▁alabama	-6982
▁prosec	-6983
▁pleas	-6984
▁offensive	-6985
▁athletic	-6986
▁yan	-6987
▁noble	-6988
▁drugs	-6989
▁frequent	-6990
(''	-6991
▁temporary	-6992
▁ride	-6993
▁rick	-6994
▁filmed	-6995
▁hem	-6996
▁struck	-6997
!"	-6998
there	-6999
mingham	-7000
▁appearing	-7001
▁sweet	-7002
▁volcan	-7003
▁nut	-7004
▁thompson	-7005
▁volumes	-7006
inburgh	-7007
▁admitted	-7008
zi	-7009
▁maur	-7010
mr	-7011
▁temperatures	-7012
▁toy	-7013
▁indeed	-7014
▁kick	-7015
cycl	-7016
▁indians	-7017
apolis	-7018
▁turns	-7019
▁yield	-7020
his	-7021
▁saturday	-7022
▁capit	-7023
oria	-7024
▁mrs	-7025
disc	-7026
▁ky	-7027
▁agents	-7028
▁corporate	-7029
▁tam	-7030
▁billy	-7031
▁meanwhile	-7032
▁dre	-7033
lic	-7034
rac	-7035
▁treated	-7036
▁paintings	-7037
▁oxy	-7038
▁dy	-7039
▁covering	-7040
▁license	-7041
vious	-7042
▁coverage	-7043
riers	-7044
▁substit	-7045
▁interstate	-7046
def	-7047
▁fern	-7048
▁channels	-7049
▁antonio	-7050
▁charts	-7051
nell	-7052
▁hindu	-7053
bow	-7054
ser	-7055
dest	-7056
▁unusual	-7057
▁robinson	-7058
▁vinc	-7059
eur	-7060
▁tong	-7061
▁equipped	-7062
▁arranged	-7063
▁geomet	-7064
▁discip	-7065
▁finland	-7066
▁valid	-7067
tical	-7068
▁speaker	-7069
ellor	-7070
▁restoration	-7071
▁shopping	-7072
▁belgium	-7073
▁serial	-7074
▁directors	-7075
és	-7076
obile	-7077
▁everything	-7078
otte	-7079
▁yor	-7080
▁render	-7081
away	-7082
▁por	-7083
▁genre	-7084
▁worship	-7085
van	-7086
▁oklahoma	-7087
▁shock	-7088
▁increases	-7089
▁teachers	-7090
▁submarine	-7091
▁essential	-7092
▁moves	-7093
far	-7094
abled	-7095
▁pitch	-7096
▁practical	-7097
▁missions	-7098
urg	-7099
timore	-7100
▁**''	-7101
▁cler	-7102
▁jerusalem	-7103
▁tot	-7104
▁stim	-7105
▁parad	-7106
eas	-7107
iterranean	-7108
▁bic	-7109
▁voters	-7110
▁displ	-7111
▁interested	-7112
▁murray	-7113
▁bind	-7114
▁warner	-7115
▁segment	-7116
▁kelly	-7117
▁concerned	-7118
folk	-7119
path	-7120
▁symphony	-7121
esis	-7122
jamin	-7123
▁gone	-7124
▁hunter	-7125
▁sympt	-7126
fish	-7127
style	-7128
▁liverpool	-7129
▁starts	-7130
▁kevin	-7131
▁calc	-7132
▁gill	-7133
▁impris	-7134
▁turb	-7135
▁knew	-7136
▁vit	-7137
▁partly	-7138
apping	-7139
▁circumst	-7140
▁riding	-7141
▁acknow	-7142
▁historians	-7143
cd	-7144
william	-7145
▁cited	-7146
▁wooden	-7147
▁vienna	-7148
iop	-7149
▁engineers	-7150
▁ni	-7151
▁baker	-7152
▁fib	-7153
▁luther	-7154
▁(0000-0000),	-7155
▁executed	-7156
▁liv	-7157
gie	-7158
▁0000–0000,	-7159
▁neck	-7160
ultane	-7161
▁hunt	-7162
▁lasted	-7163
▁attributed	-7164
▁continuous	-7165
ét	-7166
▁operational	-7167
▁config	-7168
▁cleveland	-7169
▁branches	-7170
▁chile	-7171
▁instrumental	-7172
▁rooms	-7173
▁raise	-7174
▁amateur	-7175
▁tip	-7176
▁orbit	-7177
utor	-7178
abet	-7179
▁traditions	-7180
▁sight	-7181
big	-7182
▁flash	-7183
▁hob	-7184
▁panel	-7185
rog	-7186
▁gon	-7187
▁barry	-7188
▁jobs	-7189
▁wonder	-7190
▁proposal	-7191
▁surrounded	-7192
ader	-7193
tering	-7194
▁borders	-7195
fil	-7196
person	-7197
▁pull	-7198
▁origins	-7199
▁detailed	-7200
▁enforce	-7201
▁triang	-7202
▁furn	-7203
uda	-7204
▁send	-7205
ilst	-7206
▁genetic	-7207
▁begun	-7208
bean	-7209
▁restaurant	-7210
▁ms	-7211
▁perc	-7212
▁characteristics	-7213
▁completion	-7214
▁bernard	-7215
▁knock	-7216
▁participate	-7217
▁entering	-7218
▁seattle	-7219
▁triple	-7220
ingly	-7221
pin	-7222
▁victims	-7223
▁ye	-7224
ridge	-7225
▁siege	-7226
▁moral	-7227
▁prede	-7228
igration	-7229
rehens	-7230
▁hurricane	-7231
▁minority	-7232
oa	-7233
▁dioc	-7234
brid	-7235
▁goth	-7236
▁ing	-7237
▁defensive	-7238
▁lud	-7239
▁designer	-7240
iti	-7241
▁helicop	-7242
▁childhood	-7243
▁renov	-7244
▁layer	-7245
▁mediterranean	-7246
▁tourism	-7247
anny	-7248
▁manh	-7249
umed	-7250
ners	-7251
▁carib	-7252
adesh	-7253
▁amongst	-7254
▁archbishop	-7255
▁simultane	-7256
asa	-7257
▁lan	-7258
▁flows	-7259
▁concentration	-7260
▁horses	-7261
▁colors	-7262
▁nob	-7263
▁spaces	-7264
▁losses	-7265
si	-7266
▁congreg	-7267
rastruct	-7268
▁bringing	-7269
▁pant	-7270
oz	-7271
▁pitts	-7272
▁nag	-7273
▁atlanta	-7274
▁dragon	-7275
erted	-7276
▁gross	-7277
▁tool	-7278
▁missing	-7279
▁matters	-7280
urally	-7281
▁reprod	-7282
▁revival	-7283
▁miami	-7284
▁rating	-7285
▁employment	-7286
▁injured	-7287
▁suicide	-7288
▁edinburgh	-7289
▁absol	-7290
▁emerged	-7291
▁warren	-7292
▁peters	-7293
▁substantial	-7294
▁tub	-7295
▁marketing	-7296
▁operator	-7297
ishment	-7298
▁behavi	-7299
▁denn	-7300
▁graham	-7301
▁din	-7302
▁datab	-7303
▁advertising	-7304
emen	-7305
▁shooting	-7306
▁usage	-7307
▁replacing	-7308
rip	-7309
▁rus	-7310
▁whilst	-7311
▁crus	-7312
govern	-7313
▁experiences	-7314
ando	-7315
▁hitler	-7316
▁educated	-7317
kar	-7318
▁rarely	-7319
ribed	-7320
atus	-7321
▁diction	-7322
▁mond	-7323
▁jenn	-7324
▁marks	-7325
▁electro	-7326
▁johnny	-7327
▁wearing	-7328
▁maps	-7329
▁provision	-7330
▁monitor	-7331
▁fundamental	-7332
yon	-7333
▁dak	-7334
▁quad	-7335
▁phrase	-7336
▁jimmy	-7337
mund	-7338
▁cartoon	-7339
▁birmingham	-7340
▁radar	-7341
▁ian	-7342
▁ninet	-7343
german	-7344
osph	-7345
▁$0,000	-7346
▁infrastruct	-7347
sil	-7348
cap	-7349
▁shares	-7350
▁annually	-7351
▁rebellion	-7352
▁resort	-7353
▁angle	-7354
▁repr	-7355
▁forb	-7356
▁recommended	-7357
▁attracted	-7358
▁sudden	-7359
▁serge	-7360
▁commerce	-7361
▁files	-7362
abilities	-7363
▁indicated	-7364
▁involves	-7365
▁relation	-7366
▁napole	-7367
iest	-7368
▁hungarian	-7369
▁immediate	-7370
▁ghost	-7371
rh	-7372
▁expensive	-7373
when	-7374
▁premi	-7375
aire	-7376
ivan	-7377
▁newspapers	-7378
▁kra	-7379
▁000)	-7380
graduate	-7381
▁tempor	-7382
▁alge	-7383
pent	-7384
▁magnetic	-7385
▁radiation	-7386
▁appropriate	-7387
uces	-7388
▁creative	-7389
uations	-7390
▁bact	-7391
▁encouraged	-7392
borne	-7393
▁obtain	-7394
▁photo	-7395
▁desire	-7396
▁cultiv	-7397
▁dangerous	-7398
aj	-7399
▁argentina	-7400
▁casual	-7401
▁orb	-7402
uble	-7403
▁ambassador	-7404
ambig	-7405
su	-7406
andy	-7407
▁interpretation	-7408
ricted	-7409
▁kam	-7410
del	-7411
fre	-7412
▁mechanism	-7413
▁nash	-7414
iqu	-7415
▁egyptian	-7416
fc	-7417
released	-7418
▁rocket	-7419
oba	-7420
▁turning	-7421
▁iowa	-7422
iden	-7423
▁sounds	-7424
▁rever	-7425
▁civilian	-7426
iki	-7427
odore	-7428
▁predecess	-7429
▁transmit	-7430
▁tanks	-7431
▁adjust	-7432
▁voting	-7433
▁joining	-7434
▁ft	-7435
▁loop	-7436
▁theories	-7437
▁conventional	-7438
dav	-7439
▁commons	-7440
great	-7441
▁regime	-7442
▁partially	-7443
▁surgery	-7444
bet	-7445
▁opponent	-7446
▁benefits	-7447
▁writings	-7448
▁undert	-7449
▁deck	-7450
▁preserved	-7451
▁relationships	-7452
▁baltimore	-7453
▁:''	-7454
▁ferry	-7455
iser	-7456
good	-7457
iller	-7458
speed	-7459
▁fled	-7460
▁deaths	-7461
▁wag	-7462
▁°	-7463
▁diff	-7464
oker	-7465
▁joy	-7466
▁dominant	-7467
▁byz	-7468
alph	-7469
hour	-7470
▁dominated	-7471
▁tribute	-7472
▁collaboration	-7473
▁anglo	-7474
▁rifle	-7475
▁happened	-7476
▁collapse	-7477
▁compete	-7478
▁commissioner	-7479
▁meat	-7480
▁corrupt	-7481
bach	-7482
▁accel	-7483
usa	-7484
▁belt	-7485
▁canon	-7486
▁explor	-7487
cro	-7488
▁variant	-7489
▁balance	-7490
▁interpre	-7491
▁voy	-7492
▁choose	-7493
▁annex	-7494
▁generated	-7495
▁pod	-7496
atin	-7497
velt	-7498
gow	-7499
▁clearly	-7500
▁confederate	-7501
▁stable	-7502
▁harbour	-7503
station	-7504
▁clinton	-7505
phal	-7506
▁harrison	-7507
helor	-7508
▁kilomet	-7509
▁highlight	-7510
▁revenue	-7511
cules	-7512
▁gy	-7513
▁lists	-7514
▁merchant	-7515
▁diver	-7516
▁predomin	-7517
▁sessions	-7518
▁reduction	-7519
iph	-7520
rolled	-7521
▁portrait	-7522
ussion	-7523
whe	-7524
itarian	-7525
▁benjamin	-7526
▁slave	-7527
▁oxygen	-7528
▁patent	-7529
▁computers	-7530
gent	-7531
▁kon	-7532
▁drummer	-7533
▁eug	-7534
▁farmers	-7535
ige	-7536
▁chemistry	-7537
▁error	-7538
▁microsoft	-7539
▁brazilian	-7540
lington	-7541
▁democracy	-7542
▁boats	-7543
possible	-7544
▁struggle	-7545
▁produces	-7546
▁percentage	-7547
▁gor	-7548
▁pierre	-7549
▁intention	-7550
second	-7551
▁ibn	-7552
▁cruis	-7553
▁landscape	-7554
▁guar	-7555
fs	-7556
▁illegal	-7557
▁compilation	-7558
▁sharp	-7559
▁mathematical	-7560
▁absence	-7561
▁tort	-7562
▁apply	-7563
▁intent	-7564
lete	-7565
bul	-7566
▁themes	-7567
.'	-7568
elli	-7569
▁supplies	-7570
▁nba	-7571
dire	-7572
▁eagle	-7573
dist	-7574
▁possibility	-7575
▁ready	-7576
ifies	-7577
▁recept	-7578
▁romantic	-7579
▁patron	-7580
▁vessel	-7581
▁horizon	-7582
▁cole	-7583
▁driven	-7584
▁christianity	-7585
appro	-7586
▁cock	-7587
▁gary	-7588
▁exceed	-7589
▁marie	-7590
▁nomination	-7591
▁gets	-7592
▁amendment	-7593
▁copper	-7594
▁releases	-7595
tha	-7596
▁variable	-7597
▁len	-7598
▁flav	-7599
▁praised	-7600
▁foss	-7601
▁esp	-7602
ictions	-7603
sing	-7604
univers	-7605
▁cyl	-7606
ooth	-7607
ouver	-7608
▁declar	-7609
▁producers	-7610
oga	-7611
▁researchers	-7612
wright	-7613
ör	-7614
▁josé	-7615
▁blind	-7616
▁false	-7617
▁polar	-7618
▁apost	-7619
▁(0000–	-7620
hall	-7621
cour	-7622
▁sisters	-7623
lik	-7624
▁austin	-7625
▁infrastructure	-7626
▁protestant	-7627
uki	-7628
▁steps	-7629
mart	-7630
▁wayne	-7631
acre	-7632
▁constituency	-7633
orship	-7634
▁departure	-7635
▁stayed	-7636
▁shah	-7637
▁patient	-7638
▁virtual	-7639
▁involvement	-7640
▁angl	-7641
▁dogs	-7642
▁cargo	-7643
▁blocks	-7644
▁collections	-7645
▁beng	-7646
mate	-7647
▁arabic	-7648
berry	-7649
▁ww	-7650
▁pent	-7651
▁aggress	-7652
mount	-7653
▁kaz	-7654
▁harmon	-7655
▁trap	-7656
uri	-7657
anian	-7658
▁femin	-7659
▁kin	-7660
▁gosp	-7661
▁grace	-7662
formerly	-7663
▁characterized	-7664
yan	-7665
▁*0	-7666
▁denied	-7667
▁explo	-7668
type	-7669
opes	-7670
▁exposure	-7671
▁holiday	-7672
▁arrangement	-7673
▁comprehens	-7674
▁earn	-7675
▁publicly	-7676
▁bog	-7677
udi	-7678
front	-7679
olia	-7680
▁hull	-7681
president	-7682
▁depicted	-7683
▁cotton	-7684
igo	-7685
▁cave	-7686
▁neutral	-7687
▁ted	-7688
xic	-7689
▁adventures	-7690
acle	-7691
▁gradu	-7692
▁telephone	-7693
sect	-7694
three	-7695
▁boundaries	-7696
▁dock	-7697
abil	-7698
▁eighth	-7699
▁heir	-7700
▁shift	-7701
post	-7702
▁prices	-7703
iveness	-7704
rin	-7705
▁remove	-7706
▁nan	-7707
▁distinction	-7708
ulating	-7709
▁artific	-7710
scale	-7711
game	-7712
atch	-7713
▁cinema	-7714
▁inqu	-7715
▁elsewhere	-7716
blue	-7717
▁blo	-7718
tel	-7719
▁threatened	-7720
▁editions	-7721
▁adventure	-7722
ingham	-7723
▁truck	-7724
▁evolved	-7725
▁ministers	-7726
itis	-7727
▁nurs	-7728
▁dallas	-7729
▁signals	-7730
▁bin	-7731
▁argument	-7732
▁closer	-7733
adi	-7734
▁tib	-7735
▁patterns	-7736
▁nom	-7737
▁quart	-7738
ignment	-7739
▁meets	-7740
▁customers	-7741
ml	-7742
hell	-7743
▁eleven	-7744
oly	-7745
▁raj	-7746
▁remainder	-7747
▁mck	-7748
▁ble	-7749
▁liberty	-7750
▁essentially	-7751
▁hut	-7752
castle	-7753
▁propag	-7754
osevelt	-7755
▁bald	-7756
▁prefect	-7757
▁graphics	-7758
idency	-7759
market	-7760
▁pink	-7761
▁exercise	-7762
final	-7763
▁identical	-7764
dou	-7765
▁pregn	-7766
▁loan	-7767
▁monastery	-7768
▁pine	-7769
▁matthew	-7770
▁concerts	-7771
then	-7772
rors	-7773
▁raw	-7774
▁spoke	-7775
lay	-7776
▁parker	-7777
▁dated	-7778
▁alpha	-7779
▁saints	-7780
▁technologies	-7781
otes	-7782
mag	-7783
▁phoen	-7784
▁ceremon	-7785
▁masters	-7786
▁(0000–0000).	-7787
mc	-7788
▁flower	-7789
▁hardware	-7790
billboard	-7791
▁yug	-7792
▁crowd	-7793
▁occasions	-7794
aste	-7795
▁matrix	-7796
▁summit	-7797
▁pseud	-7798
isition	-7799
ais	-7800
▁waste	-7801
▁daughters	-7802
▁tape	-7803
▁weekend	-7804
▁leaf	-7805
▁ri	-7806
▁animation	-7807
▁corresponding	-7808
▁pharm	-7809
▁slaves	-7810
race	-7811
ersed	-7812
olo	-7813
▁shadow	-7814
▁catch	-7815
▁biological	-7816
▁bears	-7817
▁ryan	-7818
▁anyone	-7819
▁heaven	-7820
▁meetings	-7821
only	-7822
▁jum	-7823
child	-7824
▁sword	-7825
▁analog	-7826
▁associate	-7827
▁tube	-7828
▁debt	-7829
▁demon	-7830
▁griff	-7831
▁isa	-7832
▁enjoyed	-7833
▁zh	-7834
▁claiming	-7835
▁circumstances	-7836
othy	-7837
▁cousin	-7838
▁worn	-7839
▁vik	-7840
▁experiments	-7841
▁challeng	-7842
▁hebrew	-7843
▁supports	-7844
▁manhattan	-7845
▁identify	-7846
leans	-7847
▁touring	-7848
▁psychology	-7849
ashi	-7850
▁yard	-7851
▁efficient	-7852
sv	-7853
▁logic	-7854
▁richmond	-7855
▁(),	-7856
▁finishing	-7857
▁parent	-7858
▁sample	-7859
▁variation	-7860
▁hudson	-7861
▁bachelor	-7862
orous	-7863
▁consumer	-7864
▁persu	-7865
▁originated	-7866
▁(0.0	-7867
▁fitz	-7868
strong	-7869
hetic	-7870
▁andre	-7871
euro	-7872
rot	-7873
▁fitted	-7874
▁nobel	-7875
▁reli	-7876
▁prest	-7877
▁ruling	-7878
▁statistics	-7879
▁jar	-7880
ifer	-7881
▁guer	-7882
▁sket	-7883
▁phone	-7884
▁thereafter	-7885
sters	-7886
▁warfare	-7887
▁connecting	-7888
▁wool	-7889
inch	-7890
▁tourist	-7891
▁approval	-7892
via	-7893
izer	-7894
love	-7895
▁revised	-7896
▁proof	-7897
▁ranks	-7898
gold	-7899
▁mainstream	-7900
live	-7901
▁displayed	-7902
▁tob	-7903
▁cru	-7904
▁collins	-7905
iration	-7906
▁symptoms	-7907
wind	-7908
▁lac	-7909
▁fert	-7910
▁ced	-7911
ancouver	-7912
▁stu	-7913
▁references	-7914
ín	-7915
▁anat	-7916
▁pole	-7917
▁mines	-7918
▁roosevelt	-7919
ère	-7920
▁concrete	-7921
▁cp	-7922
▁dum	-7923
▁trophy	-7924
▁suffering	-7925
▁tone	-7926
▁descent	-7927
▁anna	-7928
▁libr	-7929
▁swit	-7930
▁cord	-7931
▁forests	-7932
▁immigrants	-7933
▁(,	-7934
▁muhammad	-7935
▁sole	-7936
▁hearing	-7937
▁compens	-7938
rett	-7939
▁flowers	-7940
▁hypothes	-7941
▁expert	-7942
▁impossible	-7943
▁gates	-7944
▁nicholas	-7945
▁****	-7946
urers	-7947
▁afghanistan	-7948
▁jefferson	-7949
▁discussion	-7950
▁manufactured	-7951
▁eggs	-7952
▁hole	-7953
▁preferred	-7954
▁locally	-7955
amics	-7956
▁suitable	-7957
▁charity	-7958
xual	-7959
nn	-7960
▁mitchell	-7961
▁hend	-7962
▁seed	-7963
▁chess	-7964
onymous	-7965
▁michel	-7966
▁theorem	-7967
▁decisions	-7968
▁sri	-7969
▁seeking	-7970
▁automatic	-7971
▁'00	-7972
aro	-7973
▁sod	-7974
▁berk	-7975
▁speakers	-7976
redited	-7977
ambiguation	-7978
▁islander	-7979
▁interface	-7980
▁rocks	-7981
gam	-7982
▁colonies	-7983
▁wildlife	-7984
▁notice	-7985
▁conscious	-7986
▁achievement	-7987
▁pale	-7988
▁artistic	-7989
▁peer	-7990
amine	-7991
stad	-7992
▁mg	-7993
▁volt	-7994
▁trump	-7995
▁baptist	-7996
group	-7997
▁concerning	-7998
▁gat	-7999
▁dispute	-8000
▁implemented	-8001
iii	-8002
▁cort	-8003
enburg	-8004
▁milk	-8005
▁contribution	-8006
jack	-8007
cos	-8008
▁execution	-8009
▁orleans	-8010
▁battery	-8011
▁violin	-8012
▁democrats	-8013
illo	-8014
▁sentence	-8015
▁keeping	-8016
dor	-8017
▁conversion	-8018
▁illustrated	-8019
▁agencies	-8020
▁empt	-8021
stood	-8022
▁seal	-8023
▁filed	-8024
▁finals	-8025
▁nhl	-8026
▁cardinal	-8027
othe	-8028
▁falling	-8029
▁explicit	-8030
▁furthermore	-8031
▁punk	-8032
▁torn	-8033
▁marvel	-8034
▁atmosphere	-8035
wig	-8036
▁exposed	-8037
)"	-8038
▁administer	-8039
fm	-8040
▁adults	-8041
▁guards	-8042
▁scholarship	-8043
▁manufacturer	-8044
▁clan	-8045
akespe	-8046
pled	-8047
▁settlements	-8048
some	-8049
▁deriv	-8050
▁interchange	-8051
▁kg	-8052
cht	-8053
▁coup	-8054
▁ukraine	-8055
▁explan	-8056
▁tied	-8057
▁jerry	-8058
▁quantum	-8059
▁mainland	-8060
▁writes	-8061
fi	-8062
▁gap	-8063
disambiguation	-8064
▁amaz	-8065
▁bund	-8066
▁suburb	-8067
▁danc	-8068
▁tomb	-8069
ums	-8070
▁dramatic	-8071
▁visiting	-8072
▁partners	-8073
▁birthday	-8074
▁romania	-8075
▁ceo	-8076
▁lifetime	-8077
▁regulations	-8078
▁drivers	-8079
▁swimming	-8080
feld	-8081
▁syndrome	-8082
▁discontin	-8083
▁migr	-8084
▁vertical	-8085
pen	-8086
▁pittsburgh	-8087
▁barn	-8088
▁christians	-8089
▁trials	-8090
▁glas	-8091
occ	-8092
▁flex	-8093
▁variations	-8094
▁barbara	-8095
rob	-8096
▁pioneer	-8097
walk	-8098
ogan	-8099
▁soci	-8100
▁alien	-8101
▁survive	-8102
▁finnish	-8103
▁caribbean	-8104
ethe	-8105
▁shan	-8106
isp	-8107
march	-8108
▁repair	-8109
▁appointment	-8110
▁democrat	-8111
▁instruction	-8112
▁(;	-8113
▁chrom	-8114
▁kan	-8115
fun	-8116
▁stere	-8117
oard	-8118
▁meters	-8119
agh	-8120
▁lose	-8121
▁evans	-8122
▁intermedi	-8123
enz	-8124
▁boss	-8125
▁um	-8126
itary	-8127
ulu	-8128
found	-8129
▁characteristic	-8130
▁advice	-8131
▁kur	-8132
▁sut	-8133
▁butter	-8134
making	-8135
mother	-8136
én	-8137
▁motors	-8138
▁(0.0%)	-8139
▁crystal	-8140
▁dup	-8141
▁connections	-8142
▁stevens	-8143
akespeare	-8144
chron	-8145
geon	-8146
▁godd	-8147
▁gym	-8148
▁rhod	-8149
▁algebra	-8150
▁rogers	-8151
assy	-8152
▁neuro	-8153
anne	-8154
▁evangel	-8155
-00,	-8156
▁hampshire	-8157
▁cogn	-8158
sat	-8159
▁measured	-8160
▁grammar	-8161
%)	-8162
▁tap	-8163
▁overseas	-8164
▁rico	-8165
▁sic	-8166
▁hawaii	-8167
▁acoust	-8168
▁buddhist	-8169
august	-8170
▁indicates	-8171
▁shops	-8172
▁nev	-8173
▁merger	-8174
▁plastic	-8175
oric	-8176
▁wake	-8177
▁metres	-8178
▁thunder	-8179
▁acknowled	-8180
▁sacred	-8181
▁ceased	-8182
▁sustain	-8183
▁facing	-8184
▁profile	-8185
▁bridges	-8186
▁buses	-8187
▁affair	-8188
▁commanded	-8189
▁earthqu	-8190
cia	-8191
ixon	-8192
▁initiative	-8193
gle	-8194
case	-8195
▁guil	-8196
▁nova	-8197
▁comparison	-8198
▁carn	-8199
▁×	-8200
▁alternate	-8201
▁noise	-8202
▁wells	-8203
▁sib	-8204
00.	-8205
▁lowest	-8206
▁tak	-8207
▁mason	-8208
▁breaking	-8209
ilding	-8210
▁lights	-8211
▁bone	-8212
▁violent	-8213
▁restaurants	-8214
▁hier	-8215
▁ruler	-8216
aman	-8217
music	-8218
▁doctrine	-8219
▁bent	-8220
nik	-8221
▁lords	-8222
▁injuries	-8223
▁municipalities	-8224
▁rio	-8225
ensively	-8226
▁manual	-8227
▁hugh	-8228
▁rac	-8229
▁lav	-8230
▁meg	-8231
▁reportedly	-8232
▁scientist	-8233
▁charlie	-8234
▁percussion	-8235
▁waves	-8236
anim	-8237
teenth	-8238
▁beauty	-8239
speaking	-8240
▁minute	-8241
▁vancouver	-8242
oons	-8243
▁pearl	-8244
▁cruc	-8245
▁torped	-8246
▁cran	-8247
▁yugoslav	-8248
▁possession	-8249
▁alive	-8250
▁.000	-8251
rection	-8252
▁vin	-8253
▁leban	-8254
uzz	-8255
▁wre	-8256
▁monte	-8257
fts	-8258
▁anchor	-8259
▁beer	-8260
▁stones	-8261
▁dictionary	-8262
▁glac	-8263
▁faster	-8264
▁carlos	-8265
▁hydrogen	-8266
idal	-8267
▁equation	-8268
▁avo	-8269
▁rush	-8270
ocation	-8271
▁categories	-8272
estone	-8273
▁farming	-8274
▁marit	-8275
mor	-8276
hero	-8277
▁jonathan	-8278
▁remote	-8279
▁gods	-8280
raham	-8281
▁bug	-8282
mac	-8283
▁galax	-8284
▁athens	-8285
▁feud	-8286
▁terry	-8287
▁railways	-8288
▁discussed	-8289
▁glen	-8290
▁conquest	-8291
▁heights	-8292
▁ukrain	-8293
▁fasc	-8294
▁phon	-8295
▁therapy	-8296
▁businessman	-8297
▁guine	-8298
▁locomotive	-8299
enez	-8300
▁restricted	-8301
▁rhythm	-8302
▁helping	-8303
▁negotiations	-8304
hs	-8305
▁globe	-8306
▁reducing	-8307
▁arkansas	-8308
minster	-8309
▁chancellor	-8310
▁surviv	-8311
▁rebuilt	-8312
▁implementation	-8313
▁alaska	-8314
▁keyboards	-8315
▁mud	-8316
ario	-8317
▁platforms	-8318
▁slowly	-8319
god	-8320
▁diverse	-8321
▁convin	-8322
▁exactly	-8323
▁subsidiary	-8324
▁exclusively	-8325
▁lip	-8326
▁distinctive	-8327
▁consolid	-8328
appo	-8329
▁auto	-8330
▁agree	-8331
▁chick	-8332
▁camps	-8333
▁defeating	-8334
▁demonstrated	-8335
▁delivery	-8336
▁aimed	-8337
▁cultures	-8338
▁usual	-8339
stan	-8340
▁protocol	-8341
▁arrow	-8342
▁recovered	-8343
jour	-8344
active	-8345
▁buffalo	-8346
▁remix	-8347
gir	-8348
acht	-8349
▁duc	-8350
▁sevent	-8351
▁succession	-8352
▁pont	-8353
chief	-8354
▁colomb	-8355
▁everyone	-8356
▁turner	-8357
▁climb	-8358
▁seeing	-8359
▁niger	-8360
▁boeing	-8361
▁muslims	-8362
▁unless	-8363
stre	-8364
▁opportunities	-8365
▁grave	-8366
▁manifest	-8367
▁recommend	-8368
▁disorder	-8369
▁pon	-8370
alt	-8371
▁hidden	-8372
▁kirk	-8373
▁powered	-8374
little	-8375
▁assets	-8376
▁erected	-8377
▁bases	-8378
▁illness	-8379
▁schedule	-8380
▁cliff	-8381
▁crimes	-8382
▁gur	-8383
▁grove	-8384
▁talent	-8385
▁phenomen	-8386
▁andy	-8387
▁gren	-8388
illing	-8389
▁surve	-8390
▁compact	-8391
▁woods	-8392
etary	-8393
▁particles	-8394
▁kw	-8395
▁clothing	-8396
aco	-8397
turn	-8398
▁guarant	-8399
lane	-8400
iler	-8401
▁insect	-8402
▁establishing	-8403
▁thanks	-8404
nt	-8405
helm	-8406
▁diplomatic	-8407
▁artificial	-8408
▁vector	-8409
▁autobi	-8410
▁diameter	-8411
▁ordinary	-8412
▁electricity	-8413
▁spending	-8414
▁intellectual	-8415
▁gust	-8416
▁herbert	-8417
▁organic	-8418
profit	-8419
▁palm	-8420
▁server	-8421
▁gw	-8422
nan	-8423
▁brooklyn	-8424
▁thinking	-8425
▁fighters	-8426
▁0,000,000	-8427
agre	-8428
▁brew	-8429
▁wedding	-8430
▁amounts	-8431
▁scout	-8432
▁jurisdiction	-8433
olition	-8434
▁anthrop	-8435
upt	-8436
0.0	-8437
▁caf	-8438
▁cattle	-8439
▁abst	-8440
▁rect	-8441
▁debuted	-8442
arest	-8443
▁traveled	-8444
icular	-8445
▁coins	-8446
▁boule	-8447
▁referring	-8448
▁enemies	-8449
▁concepts	-8450
▁decom	-8451
orient	-8452
▁gamb	-8453
▁loyal	-8454
▁$0.0	-8455
▁participation	-8456
eu	-8457
▁axis	-8458
▁tie	-8459
0"	-8460
▁rip	-8461
▁oz	-8462
mary	-8463
lord	-8464
eper	-8465
haust	-8466
▁pill	-8467
▁taxes	-8468
▁sarah	-8469
▁manip	-8470
▁database	-8471
▁motiv	-8472
▁invented	-8473
▁ibm	-8474
▁poison	-8475
▁lloyd	-8476
▁encycl	-8477
pel	-8478
▁congressional	-8479
▁ov	-8480
▁winners	-8481
▁procedure	-8482
▁tig	-8483
▁corp	-8484
▁parade	-8485
third	-8486
election	-8487
gus	-8488
▁horror	-8489
▁disaster	-8490
▁armies	-8491
mons	-8492
emed	-8493
▁participants	-8494
ayan	-8495
▁penalty	-8496
▁ferr	-8497
▁nord	-8498
▁load	-8499
▁answer	-8500
▁landed	-8501
uable	-8502
▁banned	-8503
bad	-8504
iko	-8505
▁fluid	-8506
alan	-8507
▁worst	-8508
▁tries	-8509
▁shakespeare	-8510
▁behalf	-8511
▁tea	-8512
▁vib	-8513
▁controls	-8514
▁comprehensive	-8515
▁marqu	-8516
▁''00	-8517
▁dict	-8518
olph	-8519
▁foster	-8520
▁printing	-8521
▁citizen	-8522
▁strat	-8523
▁happy	-8524
auge	-8525
▁sack	-8526
▁suspended	-8527
ao	-8528
▁stem	-8529
core	-8530
▁prayer	-8531
▁renaissance	-8532
▁solutions	-8533
yll	-8534
terior	-8535
▁doors	-8536
▁enthus	-8537
▁breed	-8538
▁attempting	-8539
gom	-8540
▁infin	-8541
heart	-8542
▁sees	-8543
▁excav	-8544
esty	-8545
acc	-8546
▁describing	-8547
▁departments	-8548
imir	-8549
▁ampl	-8550
▁facilit	-8551
▁fold	-8552
▁deployed	-8553
▁declaration	-8554
▁utah	-8555
-0,	-8556
▁diesel	-8557
▁indonesia	-8558
▁henri	-8559
▁pian	-8560
▁harold	-8561
▁responded	-8562
▁wider	-8563
▁recovery	-8564
▁forg	-8565
sol	-8566
▁maine	-8567
▁permitted	-8568
▁floren	-8569
▁toll	-8570
▁dakota	-8571
iture	-8572
asia	-8573
▁divine	-8574
▁dos	-8575
▁physician	-8576
▁cuba	-8577
▁brick	-8578
union	-8579
▁perspective	-8580
cut	-8581
▁abuse	-8582
▁funeral	-8583
▁choir	-8584
▁norfolk	-8585
ensis	-8586
ails	-8587
▁supplement	-8588
▁kne	-8589
rig	-8590
encing	-8591
▁influences	-8592
owski	-8593
▁coinc	-8594
▁removal	-8595
▁demolished	-8596
hot	-8597
▁fortress	-8598
▁celebration	-8599
▁£00	-8600
▁kiss	-8601
▁convert	-8602
▁malaysia	-8603
▁partial	-8604
nia	-8605
▁myster	-8606
▁bil	-8607
▁gabri	-8608
was	-8609
▁reverse	-8610
▁yorkshire	-8611
▁stick	-8612
▁wish	-8613
▁tum	-8614
▁burg	-8615
closed	-8616
june	-8617
kov	-8618
▁cooperation	-8619
▁bristol	-8620
▁spell	-8621
▁tet	-8622
▁jason	-8623
never	-8624
▁perceived	-8625
▁ninth	-8626
▁franç	-8627
▁announce	-8628
▁spa	-8629
▁coin	-8630
bas	-8631
▁amph	-8632
ieth	-8633
common	-8634
▁crossed	-8635
▁walking	-8636
amese	-8637
▁reforms	-8638
▁catherine	-8639
modern	-8640
▁mercury	-8641
uchy	-8642
fly	-8643
▁crater	-8644
position	-8645
▁dollars	-8646
enberg	-8647
soc	-8648
▁vas	-8649
▁novelist	-8650
aks	-8651
▁marx	-8652
▁forth	-8653
oni	-8654
▁smooth	-8655
▁reservoir	-8656
▁inject	-8657
ophone	-8658
▁larry	-8659
▁territorial	-8660
▁opponents	-8661
▁unsuccessful	-8662
▁acted	-8663
▁confer	-8664
▁clinical	-8665
-00.	-8666
los	-8667
mates	-8668
▁sect	-8669
▁devoted	-8670
mich	-8671
▁buddh	-8672
ester	-8673
week	-8674
▁kath	-8675
▁alice	-8676
ennial	-8677
maker	-8678
▁emphasis	-8679
▁byzantine	-8680
▁newton	-8681
april	-8682
▁improvements	-8683
▁reed	-8684
▁chand	-8685
▁dil	-8686
▁tons	-8687
nat	-8688
▁options	-8689
▁manor	-8690
▁alter	-8691
▁slav	-8692
▁simultaneously	-8693
▁immigration	-8694
▁wheels	-8695
cra	-8696
▁exit	-8697
▁gig	-8698
▁exhaust	-8699
▁studying	-8700
▁prototype	-8701
piece	-8702
▁till	-8703
▁stuart	-8704
▁stal	-8705
made	-8706
oys	-8707
▁abroad	-8708
▁activist	-8709
tom	-8710
▁tale	-8711
▁sponsored	-8712
▁archaeological	-8713
▁difficulty	-8714
▁ski	-8715
▁theology	-8716
▁math	-8717
▁enh	-8718
▁bish	-8719
ailand	-8720
▁wealthy	-8721
▁donated	-8722
pher	-8723
▁scat	-8724
▁breeding	-8725
▁verse	-8726
▁butler	-8727
▁favorite	-8728
ugu	-8729
▁coffee	-8730
▁algorithm	-8731
▁portland	-8732
▁isolated	-8733
▁condem	-8734
david	-8735
▁hein	-8736
▁phoenix	-8737
gence	-8738
erated	-8739
ollo	-8740
langu	-8741
▁dust	-8742
▁vern	-8743
▁resol	-8744
▁robin	-8745
▁closing	-8746
ulus	-8747
▁prol	-8748
lu	-8749
▁competitive	-8750
▁maritime	-8751
cre	-8752
▁sung	-8753
through	-8754
omorph	-8755
000,	-8756
▁legs	-8757
▁escort	-8758
main	-8759
▁cros	-8760
october	-8761
ulum	-8762
▁camb	-8763
atern	-8764
▁explain	-8765
▁gospel	-8766
▁oliver	-8767
▁rangers	-8768
employ	-8769
▁craft	-8770
▁victorian	-8771
rill	-8772
gart	-8773
caa	-8774
ipher	-8775
▁ranges	-8776
▁friendship	-8777
▁understood	-8778
▁manufacturers	-8779
▁architectural	-8780
▁borrow	-8781
▁sull	-8782
original	-8783
rah	-8784
sized	-8785
▁chip	-8786
▁trinity	-8787
▁toured	-8788
▁petro	-8789
▁vincent	-8790
▁resource	-8791
▁cc	-8792
▁pla	-8793
pit	-8794
▁merely	-8795
▁spectrum	-8796
▁holland	-8797
▁qualified	-8798
▁trek	-8799
▁photographs	-8800
▁font	-8801
▁photography	-8802
▁infer	-8803
▁nickname	-8804
▁0–00	-8805
▁encyclop	-8806
▁besides	-8807
gard	-8808
▁mam	-8809
▁keyboard	-8810
rub	-8811
igious	-8812
▁nasa	-8813
▁belgian	-8814
▁permission	-8815
▁ig	-8816
▁seemed	-8817
▁stored	-8818
onda	-8819
▁rolling	-8820
▁consistent	-8821
▁framework	-8822
▁0000'	-8823
▁exclusive	-8824
omon	-8825
aa	-8826
winning	-8827
▁denomin	-8828
▁embassy	-8829
▁cauc	-8830
gel	-8831
▁locomotives	-8832
▁frances	-8833
somet	-8834
brook	-8835
▁consumption	-8836
▁mirror	-8837
sum	-8838
▁essay	-8839
▁venue	-8840
▁evac	-8841
icon	-8842
▁inspiration	-8843
▁laser	-8844
▁depict	-8845
▁youngest	-8846
inals	-8847
olly	-8848
▁friendly	-8849
▁descendants	-8850
▁pref	-8851
▁fewer	-8852
▁0000''	-8853
▁ottawa	-8854
▁ranging	-8855
▁pilots	-8856
cult	-8857
▁regist	-8858
▁spider	-8859
▁(00.0	-8860
omous	-8861
▁portions	-8862
▁chlor	-8863
keep	-8864
imensional	-8865
porter	-8866
▁coron	-8867
▁sequel	-8868
▁ties	-8869
eva	-8870
▁package	-8871
▁intersection	-8872
▁symmet	-8873
july	-8874
▁pret	-8875
▁heroes	-8876
▁judges	-8877
▁campaigns	-8878
arked	-8879
▁initiated	-8880
▁lon	-8881
▁ongoing	-8882
▁aboard	-8883
▁societies	-8884
▁enforcement	-8885
achment	-8886
▁kle	-8887
▁maced	-8888
▁guild	-8889
igible	-8890
rous	-8891
▁monthly	-8892
▁mul	-8893
▁rim	-8894
▁credits	-8895
▁ug	-8896
▁pub	-8897
mits	-8898
smith	-8899
▁licensed	-8900
▁napoleon	-8901
▁competed	-8902
▁tours	-8903
family	-8904
▁uncertain	-8905
▁telesc	-8906
▁alberta	-8907
alia	-8908
▁eliminated	-8909
▁liberation	-8910
▁shaw	-8911
ationally	-8912
▁certific	-8913
▁basil	-8914
▁tenure	-8915
▁shorter	-8916
▁lenn	-8917
last	-8918
tan	-8919
language	-8920
sts	-8921
▁gif	-8922
▁feeling	-8923
▁obvious	-8924
eters	-8925
▁familiar	-8926
eb	-8927
▁compound	-8928
▁pi	-8929
▁duo	-8930
oded	-8931
▁lor	-8932
ierra	-8933
▁designation	-8934
▁ports	-8935
▁archives	-8936
▁caes	-8937
▁friday	-8938
▁signing	-8939
▁reporter	-8940
▁prove	-8941
▁mak	-8942
europe	-8943
▁extend	-8944
▁cutting	-8945
september	-8946
▁extensively	-8947
encer	-8948
▁queensland	-8949
uy	-8950
▁ivan	-8951
aments	-8952
▁flour	-8953
incorpor	-8954
▁ensemb	-8955
hur	-8956
minute	-8957
▁tract	-8958
▁gilbert	-8959
▁keith	-8960
▁suspension	-8961
0-	-8962
▁bullet	-8963
card	-8964
▁acquisition	-8965
▁apartment	-8966
df	-8967
▁convicted	-8968
▁romanian	-8969
written	-8970
▁recru	-8971
▁promin	-8972
owed	-8973
▁gift	-8974
anti	-8975
▁ukrainian	-8976
▁currency	-8977
▁rav	-8978
▁diseases	-8979
▁glasgow	-8980
▁kay	-8981
▁epic	-8982
▁ranking	-8983
▁efficiency	-8984
▁presents	-8985
▁aber	-8986
▁0/0	-8987
▁tales	-8988
▁acoustic	-8989
ibilities	-8990
kel	-8991
asi	-8992
stop	-8993
▁prosper	-8994
▁inhib	-8995
inus	-8996
shaped	-8997
lon	-8998
▁looked	-8999
▁ralph	-9000
thy	-9001
essed	-9002
uter	-9003
.),	-9004
▁milan	-9005
eto	-9006
▁recognised	-9007
▁competing	-9008
base	-9009
▁conclusion	-9010
sam	-9011
▁thailand	-9012
▁aug	-9013
▁vlad	-9014
five	-9015
▁shir	-9016
▁dennis	-9017
▁cancelled	-9018
▁atomic	-9019
▁wis	-9020
serv	-9021
acts	-9022
roph	-9023
zing	-9024
▁lis	-9025
agement	-9026
▁stran	-9027
▁handle	-9028
jud	-9029
▁warning	-9030
▁commentary	-9031
▁charlotte	-9032
▁abraham	-9033
▁enterprise	-9034
left	-9035
▁rings	-9036
▁mixture	-9037
cell	-9038
about	-9039
▁autumn	-9040
▁mant	-9041
▁sentenced	-9042
▁ticket	-9043
▁bars	-9044
zh	-9045
inum	-9046
▁presidency	-9047
▁arnold	-9048
osexual	-9049
mos	-9050
▁bever	-9051
▁subdiv	-9052
▁dir	-9053
▁steven	-9054
▁functional	-9055
▁reconstruction	-9056
▁hood	-9057
▁peas	-9058
▁difficulties	-9059
▁subsc	-9060
▁outbreak	-9061
▁boulevard	-9062
▁legacy	-9063
▁trigger	-9064
▁abbre	-9065
▁targets	-9066
▁legion	-9067
▁structural	-9068
▁dale	-9069
history	-9070
▁mild	-9071
▁rational	-9072
▁accessible	-9073
▁edwards	-9074
▁−	-9075
▁rounds	-9076
▁arbit	-9077
▁mh	-9078
▁sculpture	-9079
▁accurate	-9080
▁proteins	-9081
▁valuable	-9082
▁lank	-9083
cker	-9084
▁recur	-9085
▁filming	-9086
▁leo	-9087
▁kos	-9088
▁peaked	-9089
▁comfort	-9090
▁pam	-9091
▁legit	-9092
▁extract	-9093
▁morph	-9094
▁disk	-9095
rise	-9096
▁giants	-9097
lived	-9098
▁sick	-9099
▁lag	-9100
▁thereby	-9101
▁dismissed	-9102
estyle	-9103
▁situations	-9104
▁ue	-9105
▁lesser	-9106
▁regul	-9107
▁guilty	-9108
tre	-9109
▁hack	-9110
▁destination	-9111
▁relocated	-9112
▁veloc	-9113
▁bert	-9114
avel	-9115
▁bulgar	-9116
emic	-9117
▁hughes	-9118
roe	-9119
▁orn	-9120
▁tight	-9121
george	-9122
▁firing	-9123
▁trim	-9124
▁venez	-9125
▁burned	-9126
prof	-9127
ested	-9128
▁inspect	-9129
▁interviews	-9130
▁argues	-9131
omas	-9132
▁chase	-9133
boat	-9134
▁pond	-9135
drew	-9136
▁listen	-9137
▁counsel	-9138
▁hybrid	-9139
design	-9140
▁toler	-9141
oka	-9142
▁preparation	-9143
eston	-9144
cott	-9145
fted	-9146
aughter	-9147
▁muscle	-9148
▁unf	-9149
▁plains	-9150
▁intermediate	-9151
ortion	-9152
''"	-9153
▁ruth	-9154
▁craig	-9155
james	-9156
▁wallace	-9157
eta	-9158
▁interaction	-9159
▁beliefs	-9160
▁goddess	-9161
tur	-9162
▁bombing	-9163
▁ultimate	-9164
agonist	-9165
▁deliber	-9166
comp	-9167
▁hil	-9168
▁memoir	-9169
▁grandfather	-9170
riev	-9171
▁boom	-9172
▁harvest	-9173
ulous	-9174
▁flew	-9175
▁recipient	-9176
▁subt	-9177
ether	-9178
▁reflected	-9179
▁dependent	-9180
human	-9181
forced	-9182
▁oral	-9183
▁quiet	-9184
bing	-9185
▁afford	-9186
▁narrative	-9187
▁stamp	-9188
adian	-9189
▁improvement	-9190
▁requiring	-9191
itudes	-9192
▁herald	-9193
▁mystery	-9194
pic	-9195
▁victim	-9196
ido	-9197
▁forum	-9198
▁push	-9199
▁haven	-9200
cribed	-9201
▁(0.00	-9202
intern	-9203
incorporated	-9204
▁convinced	-9205
▁kids	-9206
illes	-9207
▁bare	-9208
▁unity	-9209
▁grid	-9210
▁preserve	-9211
dimensional	-9212
dal	-9213
▁chest	-9214
▁bav	-9215
▁saved	-9216
▁cloud	-9217
▁guardian	-9218
▁reporting	-9219
▁neighboring	-9220
▁commented	-9221
▁believes	-9222
▁aux	-9223
▁sailed	-9224
▁bce	-9225
▁exile	-9226
▁mold	-9227
rium	-9228
▁mend	-9229
▁arriving	-9230
agger	-9231
▁martial	-9232
▁danger	-9233
▁venture	-9234
aku	-9235
lings	-9236
▁fifteen	-9237
▁elabor	-9238
▁ask	-9239
▁rede	-9240
cester	-9241
▁memor	-9242
▁guit	-9243
osaur	-9244
▁spar	-9245
▁companion	-9246
▁tiger	-9247
▁fault	-9248
▁rally	-9249
ampton	-9250
▁towers	-9251
▁respective	-9252
▁undergraduate	-9253
▁iceland	-9254
erg	-9255
▁luis	-9256
▁compat	-9257
▁certified	-9258
gomery	-9259
▁bore	-9260
▁fulf	-9261
▁funded	-9262
▁tissue	-9263
even	-9264
etta	-9265
▁runner	-9266
▁consequently	-9267
▁perry	-9268
itan	-9269
swick	-9270
lou	-9271
▁excellent	-9272
▁blow	-9273
kan	-9274
▁swing	-9275
roid	-9276
▁shipping	-9277
▁separation	-9278
▁volunteers	-9279
kir	-9280
ymond	-9281
zed	-9282
▁readers	-9283
▁ratings	-9284
stown	-9285
arus	-9286
aser	-9287
screen	-9288
▁yam	-9289
▁mineral	-9290
▁friedrich	-9291
▁forty	-9292
care	-9293
mah	-9294
atra	-9295
▁pom	-9296
▁harvey	-9297
space	-9298
▁diocese	-9299
uka	-9300
▁absolute	-9301
▁objective	-9302
wheel	-9303
▁burning	-9304
▁optical	-9305
cca	-9306
▁receives	-9307
idd	-9308
january	-9309
▁impress	-9310
ruit	-9311
▁predecessor	-9312
oft	-9313
▁frontier	-9314
▁probability	-9315
▁photos	-9316
▁signature	-9317
▁raid	-9318
▁signif	-9319
▁guinea	-9320
▁privile	-9321
▁bobby	-9322
▁reaches	-9323
▁plaza	-9324
▁picked	-9325
nar	-9326
eric	-9327
step	-9328
effic	-9329
▁jump	-9330
▁vegas	-9331
▁craw	-9332
▁attending	-9333
▁approaches	-9334
word	-9335
▁voltage	-9336
gb	-9337
▁archive	-9338
iev	-9339
▁spl	-9340
▁knights	-9341
hon	-9342
▁accum	-9343
▁molecular	-9344
icance	-9345
tem	-9346
▁passion	-9347
▁confused	-9348
▁phosph	-9349
▁vig	-9350
▁jama	-9351
▁traded	-9352
zes	-9353
rates	-9354
▁magazines	-9355
▁retain	-9356
japan	-9357
▁behaviour	-9358
▁chi	-9359
▁timber	-9360
▁reorgan	-9361
▁disband	-9362
utt	-9363
unct	-9364
▁sure	-9365
▁eldest	-9366
abel	-9367
▁eddie	-9368
▁rhodes	-9369
▁crypt	-9370
▁tol	-9371
▁latest	-9372
▁demands	-9373
they	-9374
▁symbols	-9375
▁willing	-9376
▁statements	-9377
itic	-9378
▁publishers	-9379
holm	-9380
▁abund	-9381
listed	-9382
▁veterans	-9383
▁warriors	-9384
▁codes	-9385
▁lamb	-9386
spring	-9387
paul	-9388
▁cannon	-9389
▁00,000.	-9390
ahl	-9391
▁ferdin	-9392
▁villa	-9393
▁collaps	-9394
▁secured	-9395
▁requested	-9396
▁regardless	-9397
▁burial	-9398
▁fed	-9399
estab	-9400
▁sanct	-9401
ovakia	-9402
intendo	-9403
▁hammer	-9404
bank	-9405
▁welf	-9406
▁promoting	-9407
▁pointed	-9408
avery	-9409
anning	-9410
▁moderate	-9411
conn	-9412
▁ng	-9413
▁elite	-9414
▁pursue	-9415
▁cum	-9416
idel	-9417
oro	-9418
▁innings	-9419
▁faces	-9420
▁gregory	-9421
official	-9422
▁specialized	-9423
▁kap	-9424
▁client	-9425
▁chel	-9426
▁tribut	-9427
▁premiered	-9428
▁hp	-9429
coll	-9430
went	-9431
▁iranian	-9432
▁guitars	-9433
▁oblig	-9434
▁ronald	-9435
▁heavyweight	-9436
▁conductor	-9437
▁terminus	-9438
▁celtic	-9439
december	-9440
-00)	-9441
▁touchdown	-9442
▁nad	-9443
▁mathematic	-9444
▁curve	-9445
▁travels	-9446
▁ethiop	-9447
▁elevated	-9448
▁fifty	-9449
rien	-9450
▁spend	-9451
compass	-9452
▁smart	-9453
psy	-9454
▁fee	-9455
▁berkeley	-9456
uela	-9457
▁anime	-9458
▁freight	-9459
▁bankrupt	-9460
▁operators	-9461
▁displays	-9462
acon	-9463
▁delaware	-9464
november	-9465
archy	-9466
eli	-9467
▁abolished	-9468
▁neil	-9469
▁counterpart	-9470
▁£000	-9471
▁recruit	-9472
issions	-9473
▁shuttle	-9474
▁significance	-9475
▁pairs	-9476
▁consort	-9477
▁bicy	-9478
▁aside	-9479
▁assisted	-9480
▁temporarily	-9481
▁tibet	-9482
▁volunteer	-9483
▁eis	-9484
aba	-9485
▁corruption	-9486
▁phenomenon	-9487
▁elevation	-9488
▁grammy	-9489
▁escaped	-9490
▁cann	-9491
grade	-9492
▁retreat	-9493
▁alumn	-9494
▁departed	-9495
▁slavery	-9496
▁jury	-9497
▁nevada	-9498
▁tru	-9499
although	-9500
avia	-9501
▁abilities	-9502
▁bangl	-9503
▁easier	-9504
gements	-9505
▁approached	-9506
▁organis	-9507
pling	-9508
▁answ	-9509
page	-9510
▁alphabet	-9511
▁scores	-9512
▁manage	-9513
▁proportion	-9514
▁outdoor	-9515
amo	-9516
▁arsen	-9517
▁patt	-9518
▁chronic	-9519
▁virtually	-9520
▁surn	-9521
▁000–000.	-9522
▁chamb	-9523
▁dischar	-9524
hom	-9525
▁raymond	-9526
▁navigation	-9527
▁verb	-9528
phan	-9529
|''	-9530
▁attendance	-9531
▁exhibit	-9532
aven	-9533
▁peng	-9534
▁otto	-9535
▁varies	-9536
rogen	-9537
▁bishops	-9538
iji	-9539
▁maintaining	-9540
▁habitat	-9541
▁mechanics	-9542
ogle	-9543
pc	-9544
▁inherited	-9545
▁supplied	-9546
▁canton	-9547
▁fc	-9548
ported	-9549
▁egg	-9550
▁sitting	-9551
▁casualties	-9552
▁psychological	-9553
jor	-9554
anton	-9555
▁philippine	-9556
▁vital	-9557
▁venice	-9558
▁compounds	-9559
▁videos	-9560
▁alumin	-9561
▁wants	-9562
▁stol	-9563
ün	-9564
ovo	-9565
▁innoc	-9566
▁empty	-9567
isk	-9568
▁customs	-9569
▁fairly	-9570
▁referend	-9571
aha	-9572
▁madrid	-9573
▁marry	-9574
▁followers	-9575
▁competitions	-9576
vision	-9577
▁gauge	-9578
▁aar	-9579
▁wait	-9580
▁ernest	-9581
▁housed	-9582
▁pm	-9583
rupted	-9584
▁nun	-9585
cover	-9586
ylon	-9587
sou	-9588
▁unex	-9589
▁guests	-9590
fo	-9591
fan	-9592
▁withdrew	-9593
▁montgomery	-9594
link	-9595
iry	-9596
gio	-9597
▁brunswick	-9598
▁nerv	-9599
▁leop	-9600
▁beam	-9601
▁sulf	-9602
▁watson	-9603
▁tested	-9604
▁pitcher	-9605
ocy	-9606
▁murdered	-9607
lett	-9608
ouses	-9609
lection	-9610
▁yale	-9611
▁fallen	-9612
▁xx	-9613
cin	-9614
ön	-9615
▁configuration	-9616
▁mutual	-9617
▁connects	-9618
▁antiqu	-9619
▁organised	-9620
▁mcl	-9621
▁biology	-9622
ów	-9623
▁mete	-9624
▁nose	-9625
▁honey	-9626
▁stein	-9627
uin	-9628
▁xi	-9629
▁viewers	-9630
onduct	-9631
▁julian	-9632
▁drinking	-9633
▁developments	-9634
▁voiced	-9635
▁festivals	-9636
▁jacques	-9637
▁electronics	-9638
▁helps	-9639
robert	-9640
▁lig	-9641
▁testament	-9642
sterdam	-9643
▁restrictions	-9644
▁botan	-9645
pi	-9646
▁conspir	-9647
▁examination	-9648
▁liz	-9649
▁resid	-9650
▁pock	-9651
▁carries	-9652
▁helen	-9653
▁bombard	-9654
▁inducted	-9655
enged	-9656
▁ps	-9657
ipped	-9658
▁0000–0000)	-9659
▁ost	-9660
▁handling	-9661
month	-9662
▁recreation	-9663
▁placing	-9664
▁oscar	-9665
▁pushed	-9666
▁romans	-9667
▁ncaa	-9668
▁stops	-9669
rift	-9670
▁murphy	-9671
▁broadcasts	-9672
▁kab	-9673
▁joan	-9674
▁maintains	-9675
▁madison	-9676
every	-9677
▁array	-9678
▁dancing	-9679
▁canyon	-9680
▁anten	-9681
▁depends	-9682
▁bypass	-9683
▁libert	-9684
▁eve	-9685
▁mk	-9686
▁pist	-9687
▁redes	-9688
ye	-9689
irect	-9690
oda	-9691
▁integration	-9692
▁define	-9693
oning	-9694
▁susan	-9695
▁doubt	-9696
pine	-9697
▁mamm	-9698
alb	-9699
▁parking	-9700
▁affiliate	-9701
▁landmark	-9702
▁heath	-9703
ichi	-9704
▁acres	-9705
▁massacre	-9706
▁westminster	-9707
▁regulation	-9708
▁gn	-9709
▁deemed	-9710
inte	-9711
ław	-9712
▁keys	-9713
▁strings	-9714
▁mythology	-9715
▁bloom	-9716
▁dish	-9717
▁somers	-9718
▁attacking	-9719
very	-9720
▁radi	-9721
▁skill	-9722
▁topics	-9723
ellation	-9724
▁profit	-9725
anni	-9726
itals	-9727
▁bros	-9728
▁observation	-9729
▁welfare	-9730
bast	-9731
bone	-9732
▁relevant	-9733
▁doesn	-9734
▁traveling	-9735
sun	-9736
▁ja	-9737
▁judicial	-9738
▁libraries	-9739
▁chester	-9740
▁specified	-9741
▁devil	-9742
▁lunar	-9743
▁stability	-9744
▁submitted	-9745
▁trouble	-9746
▁sharing	-9747
▁fifa	-9748
▁independently	-9749
vet	-9750
▁scre	-9751
▁photographer	-9752
size	-9753
▁ster	-9754
▁fate	-9755
icas	-9756
ulsion	-9757
▁permit	-9758
norm	-9759
▁lex	-9760
▁explains	-9761
▁raising	-9762
agram	-9763
▁marshal	-9764
▁0000–0000.	-9765
stage	-9766
▁secular	-9767
▁collective	-9768
bie	-9769
incinn	-9770
▁varieties	-9771
mb	-9772
▁palmer	-9773
▁gem	-9774
▁athletics	-9775
▁pedro	-9776
▁centres	-9777
ijing	-9778
annel	-9779
▁administered	-9780
sburg	-9781
▁requirement	-9782
eted	-9783
▁estates	-9784
▁ware	-9785
haus	-9786
▁lodge	-9787
▁recalled	-9788
▁dissolved	-9789
▁aster	-9790
mot	-9791
rapped	-9792
techn	-9793
▁earthquake	-9794
bes	-9795
▁og	-9796
record	-9797
▁polyn	-9798
▁nights	-9799
▁buc	-9800
▁endors	-9801
▁updated	-9802
▁conjun	-9803
enda	-9804
quer	-9805
▁dialogue	-9806
aters	-9807
▁leonard	-9808
▁robot	-9809
▁necessarily	-9810
▁philosophical	-9811
▁comprom	-9812
uer	-9813
▁florence	-9814
regular	-9815
▁va	-9816
▁intense	-9817
▁ferdinand	-9818
▁wheat	-9819
six	-9820
▁syria	-9821
▁theoretical	-9822
▁helicopter	-9823
▁bren	-9824
▁nephe	-9825
▁mys	-9826
elected	-9827
▁cox	-9828
guard	-9829
▁programmes	-9830
bin	-9831
verse	-9832
▁gaz	-9833
▁reader	-9834
rav	-9835
▁fabric	-9836
lee	-9837
▁distinguish	-9838
▁gest	-9839
▁sporting	-9840
▁angels	-9841
built	-9842
▁millenn	-9843
▁survival	-9844
▁variants	-9845
▁attraction	-9846
flow	-9847
▁preservation	-9848
▁literally	-9849
▁dawn	-9850
▁manga	-9851
▁discontinued	-9852
▁destro	-9853
▁emotional	-9854
▁tear	-9855
▁prevented	-9856
▁spacecraft	-9857
▁concentrated	-9858
stock	-9859
▁burns	-9860
▁internationally	-9861
▁circular	-9862
▁thorn	-9863
phant	-9864
▁bened	-9865
▁bonus	-9866
ports	-9867
herent	-9868
▁trio	-9869
▁rocky	-9870
held	-9871
▁deer	-9872
▁crosses	-9873
▁marath	-9874
▁gothic	-9875
▁precip	-9876
had	-9877
▁fortune	-9878
▁hide	-9879
eda	-9880
▁vocalist	-9881
▁sheep	-9882
arr	-9883
ku	-9884
incinnati	-9885
▁--	-9886
▁serbia	-9887
okes	-9888
▁voices	-9889
enders	-9890
▁samples	-9891
fight	-9892
▁0000–	-9893
▁observations	-9894
aho	-9895
opy	-9896
▁informed	-9897
▁aus	-9898
▁neo	-9899
▁anglican	-9900
vas	-9901
▁waiting	-9902
mu	-9903
▁unincorporated	-9904
▁playoffs	-9905
▁politicians	-9906
eff	-9907
▁humid	-9908
▁	-9909
e	-9910
a	-9911
t	-9912
i	-9913
n	-9914
o	-9915
r	-9916
s	-9917
h	-9918
l	-9919
d	-9920
c	-9921
0	-9922
u	-9923
m	-9924
f	-9925
p	-9926
g	-9927
w	-9928
b	-9929
y	-9930
,	-9931
.	-9932
v	-9933
'	-9934
k	-9935
*	-9936
-	-9937
)	-9938
(	-9939
j	-9940
"	-9941
x	-9942
z	-9943
q	-9944
:	-9945
–	-9946
%	-9947
;	-9948
/	-9949
é	-9950
#	-9951
$	-9952
—	-9953
&	-9954
’	-9955
|	-9956
!	-9957
á	-9958
=	-9959
ó	-9960
ö	-9961
ü	-9962
í	-9963
?	-9964
”	-9965
“	-9966
+	-9967
ō	-9968
ä	-9969
2	-9970
è	-9971
ā	-9972
_	-9973
£	-9974
ç	-9975
ł	-9976
š	-9977
°	-9978
ć	-9979
а	-9980
ñ	-9981
о	-9982
ø	-9983
ú	-9984
×	-9985
ã	-9986
и	-9987
č	-9988
е	-9989
−	-9990
‘	-9991
ū	-9992
â	-9993
н	-9994
α	-9995
à	-9996
